unsigned char __mnist_model_tflite[] = {
  0x20, 0x00, 0x00, 0x00, 0x54, 0x46, 0x4c, 0x33, 0x00, 0x00, 0x00, 0x00,
  0x00, 0x00, 0x12, 0x00, 0x1c, 0x00, 0x04, 0x00, 0x08, 0x00, 0x0c, 0x00,
  0x10, 0x00, 0x14, 0x00, 0x00, 0x00, 0x18, 0x00, 0x12, 0x00, 0x00, 0x00,
  0x03, 0x00, 0x00, 0x00, 0xc8, 0x2e, 0x00, 0x00, 0x00, 0x20, 0x00, 0x00,
  0xe8, 0x1f, 0x00, 0x00, 0x3c, 0x00, 0x00, 0x00, 0x04, 0x00, 0x00, 0x00,
  0x01, 0x00, 0x00, 0x00, 0x0c, 0x00, 0x00, 0x00, 0x08, 0x00, 0x0c, 0x00,
  0x04, 0x00, 0x08, 0x00, 0x08, 0x00, 0x00, 0x00, 0x08, 0x00, 0x00, 0x00,
  0x0f, 0x00, 0x00, 0x00, 0x13, 0x00, 0x00, 0x00, 0x6d, 0x69, 0x6e, 0x5f,
  0x72, 0x75, 0x6e, 0x74, 0x69, 0x6d, 0x65, 0x5f, 0x76, 0x65, 0x72, 0x73,
  0x69, 0x6f, 0x6e, 0x00, 0x10, 0x00, 0x00, 0x00, 0x98, 0x1f, 0x00, 0x00,
  0x84, 0x1f, 0x00, 0x00, 0x68, 0x1f, 0x00, 0x00, 0x34, 0x1f, 0x00, 0x00,
  0x00, 0x1f, 0x00, 0x00, 0xbc, 0x1e, 0x00, 0x00, 0x48, 0x02, 0x00, 0x00,
  0xf4, 0x01, 0x00, 0x00, 0xa0, 0x00, 0x00, 0x00, 0x94, 0x00, 0x00, 0x00,
  0x80, 0x00, 0x00, 0x00, 0x6c, 0x00, 0x00, 0x00, 0x58, 0x00, 0x00, 0x00,
  0x44, 0x00, 0x00, 0x00, 0x30, 0x00, 0x00, 0x00, 0x04, 0x00, 0x00, 0x00,
  0xee, 0xdf, 0xff, 0xff, 0x04, 0x00, 0x00, 0x00, 0x10, 0x00, 0x00, 0x00,
  0x31, 0x2e, 0x35, 0x2e, 0x30, 0x00, 0x00, 0x00, 0x00, 0x00, 0x00, 0x00,
  0x00, 0x00, 0x00, 0x00, 0x00, 0x00, 0x00, 0x00, 0x00, 0x00, 0x00, 0x00,
  0x00, 0x00, 0x00, 0x00, 0x00, 0xd3, 0xff, 0xff, 0x00, 0x00, 0x00, 0x00,
  0x00, 0x00, 0x00, 0x00, 0x00, 0x00, 0x00, 0x00, 0x10, 0xd3, 0xff, 0xff,
  0x00, 0x00, 0x00, 0x00, 0x00, 0x00, 0x00, 0x00, 0x00, 0x00, 0x00, 0x00,
  0x20, 0xd3, 0xff, 0xff, 0x00, 0x00, 0x00, 0x00, 0x00, 0x00, 0x00, 0x00,
  0x00, 0x00, 0x00, 0x00, 0x30, 0xd3, 0xff, 0xff, 0x00, 0x00, 0x00, 0x00,
  0x00, 0x00, 0x00, 0x00, 0x00, 0x00, 0x00, 0x00, 0x40, 0xd3, 0xff, 0xff,
  0x00, 0x00, 0x00, 0x00, 0x00, 0x00, 0x00, 0x00, 0x00, 0x00, 0x00, 0x00,
  0x50, 0xd3, 0xff, 0xff, 0x00, 0x00, 0x00, 0x00, 0x6e, 0xe0, 0xff, 0xff,
  0x04, 0x00, 0x00, 0x00, 0x44, 0x01, 0x00, 0x00, 0x07, 0x16, 0x7f, 0xd7,
  0x46, 0xfa, 0xe9, 0x09, 0x3a, 0x1c, 0xfa, 0x40, 0x04, 0xff, 0xfb, 0x6f,
  0xdd, 0x2a, 0x0b, 0x27, 0x53, 0x10, 0x03, 0x17, 0xdd, 0xeb, 0x04, 0x05,
  0x14, 0x06, 0x07, 0x06, 0xcf, 0x18, 0xc8, 0xe3, 0x2b, 0x1f, 0x48, 0xf6,
  0xff, 0x20, 0xdf, 0xf6, 0xf2, 0xde, 0x36, 0x18, 0x06, 0xcf, 0xde, 0xe9,
  0x09, 0xe0, 0x05, 0xfa, 0x12, 0xbc, 0x20, 0xe2, 0xd0, 0xf8, 0x23, 0xe6,
  0x09, 0x0f, 0xdf, 0xef, 0xe6, 0x3e, 0xee, 0x00, 0xf6, 0xe5, 0xed, 0xe5,
  0x17, 0x23, 0xf1, 0x0d, 0xf1, 0xaa, 0xf7, 0xf2, 0x11, 0x14, 0x1d, 0x99,
  0x08, 0x10, 0x1e, 0x25, 0x0a, 0xd1, 0x16, 0x50, 0x30, 0x22, 0xb5, 0x81,
  0xef, 0xff, 0x21, 0x3f, 0x36, 0xb4, 0x2e, 0x41, 0xf8, 0x00, 0x9a, 0xb9,
  0x03, 0xae, 0x2c, 0x1c, 0x2f, 0x99, 0x30, 0xed, 0x13, 0x11, 0x6f, 0xd6,
  0x5a, 0x09, 0xf1, 0xe6, 0x85, 0xe1, 0xb6, 0xd3, 0x00, 0x08, 0xfd, 0xcd,
  0xfd, 0xff, 0x22, 0x27, 0x28, 0xed, 0xf5, 0xf6, 0xf5, 0xfb, 0x81, 0xbd,
  0xc5, 0xd1, 0x0b, 0x20, 0x11, 0x1e, 0xe7, 0x2a, 0x0a, 0xfc, 0xed, 0xdd,
  0xe5, 0xf0, 0x48, 0x05, 0x15, 0x0e, 0xfd, 0x7c, 0x25, 0x38, 0xfc, 0xc8,
  0x55, 0x1f, 0x00, 0xe8, 0x0d, 0xdf, 0x15, 0xd0, 0x12, 0xed, 0xf7, 0x51,
  0xcd, 0x5b, 0x0a, 0x1c, 0x17, 0x15, 0x1f, 0x10, 0x0a, 0x0f, 0x05, 0xfb,
  0x03, 0xe7, 0xd7, 0xf0, 0x08, 0x7f, 0x1d, 0x36, 0xd5, 0xd8, 0xf4, 0x41,
  0xed, 0xfa, 0xcf, 0xce, 0xcd, 0x10, 0x92, 0xad, 0x04, 0xf6, 0xc9, 0x0b,
  0xdc, 0x17, 0x14, 0x1a, 0xbc, 0x22, 0xd6, 0x2e, 0x17, 0x1a, 0x0a, 0xf3,
  0x1f, 0x04, 0xe3, 0xec, 0x95, 0x2a, 0xc7, 0x0e, 0x07, 0xef, 0xad, 0xf2,
  0xb3, 0xd7, 0x0a, 0xe1, 0x0d, 0xbf, 0xf0, 0xc3, 0x1a, 0x06, 0x81, 0x30,
  0xae, 0x1a, 0x11, 0x19, 0xe1, 0xeb, 0xe9, 0xd8, 0xf6, 0xf4, 0x39, 0xe8,
  0x3b, 0xfd, 0xe7, 0xf2, 0x04, 0x53, 0x00, 0x40, 0x02, 0x06, 0xfa, 0x7f,
  0xec, 0x7f, 0x13, 0x0d, 0xe6, 0x0f, 0xee, 0x1c, 0xf1, 0xf1, 0x0d, 0xf9,
  0xe5, 0xd0, 0x12, 0x14, 0x10, 0x1e, 0x0f, 0x16, 0xfe, 0x09, 0xff, 0xf3,
  0xf6, 0xef, 0xe9, 0xdc, 0x10, 0xf2, 0xe8, 0xed, 0x20, 0x0f, 0x20, 0x35,
  0x0b, 0x24, 0x03, 0x1b, 0x14, 0xd4, 0x15, 0xe8, 0xbe, 0xe1, 0xff, 0xff,
  0x04, 0x00, 0x00, 0x00, 0x36, 0x00, 0x00, 0x00, 0xff, 0xef, 0x2e, 0xa2,
  0x1e, 0x7f, 0x08, 0x59, 0x54, 0xed, 0x3c, 0xd5, 0xed, 0x7f, 0xd4, 0xd6,
  0x41, 0x34, 0x26, 0x59, 0x81, 0x31, 0x1d, 0xb5, 0x11, 0x14, 0xd9, 0x81,
  0xe0, 0x16, 0xc5, 0xfa, 0x09, 0x0a, 0x0e, 0x0d, 0x3c, 0xd3, 0x01, 0x7b,
  0x0b, 0x81, 0x62, 0xd6, 0xbf, 0xbf, 0xca, 0x3b, 0xa9, 0xdb, 0x7f, 0x08,
  0x44, 0xfb, 0x00, 0x00, 0x00, 0x00, 0x00, 0x00, 0x00, 0x00, 0x00, 0x00,
  0x00, 0x00, 0x00, 0x00, 0x0e, 0xe2, 0xff, 0xff, 0x04, 0x00, 0x00, 0x00,
  0x5c, 0x1c, 0x00, 0x00, 0x3f, 0x30, 0xfc, 0x21, 0x09, 0x17, 0x29, 0x12,
  0xe8, 0x0e, 0x11, 0xfd, 0x23, 0xf7, 0x1a, 0xf9, 0x0a, 0x05, 0xe8, 0xe9,
  0xfb, 0x0c, 0xfa, 0x06, 0x0a, 0xf3, 0xf0, 0x12, 0xf3, 0xfe, 0xfc, 0x04,
  0x07, 0x00, 0x09, 0x04, 0xec, 0xe5, 0x18, 0x1a, 0x1e, 0x1c, 0x0a, 0x00,
  0x0a, 0x26, 0x16, 0x09, 0xfb, 0x00, 0x22, 0x1b, 0x08, 0x02, 0x05, 0x1a,
  0x38, 0x1c, 0x14, 0x06, 0x12, 0x46, 0x1c, 0x16, 0xf6, 0x0f, 0x1c, 0x2b,
  0xfa, 0x22, 0x13, 0x0a, 0x15, 0x1b, 0xeb, 0x09, 0xf8, 0xfa, 0x29, 0x1b,
  0x0a, 0xdd, 0xfb, 0xf8, 0x0c, 0x1d, 0xfb, 0xf0, 0xfe, 0xf5, 0x0a, 0x01,
  0xfd, 0xeb, 0x0f, 0x1f, 0xff, 0x02, 0xfc, 0x10, 0x04, 0x04, 0xfb, 0xfa,
  0x0d, 0x01, 0xeb, 0x0f, 0xf4, 0x0c, 0xee, 0xf8, 0x15, 0x12, 0xf2, 0xfe,
  0xfb, 0x08, 0xfa, 0x07, 0xf7, 0xfc, 0x2c, 0xeb, 0x27, 0x14, 0xf7, 0x2b,
  0x2f, 0x25, 0x27, 0x05, 0x03, 0xf3, 0x0b, 0x1d, 0xfd, 0x08, 0x0f, 0x1c,
  0x19, 0x04, 0x08, 0x0a, 0x17, 0x1b, 0x0b, 0xfc, 0x01, 0xfe, 0x11, 0x18,
  0xf9, 0xf8, 0x00, 0xeb, 0x06, 0xff, 0xfe, 0xde, 0xf8, 0x18, 0xfe, 0xf4,
  0xfc, 0x1b, 0xf4, 0x1c, 0xfe, 0xfc, 0x04, 0x18, 0xfd, 0x19, 0xe5, 0x02,
  0xf4, 0xec, 0x16, 0x0c, 0xf4, 0x00, 0x06, 0x1a, 0xfa, 0x0b, 0x07, 0xff,
  0x15, 0xf5, 0x2a, 0x13, 0x00, 0x0b, 0x31, 0x26, 0x2b, 0xf1, 0x0e, 0x02,
  0x31, 0xfe, 0x06, 0x00, 0x12, 0x0c, 0x22, 0x0c, 0x09, 0xfa, 0x0d, 0x04,
  0x04, 0x16, 0xfd, 0x09, 0xf8, 0x11, 0x07, 0xf4, 0x0e, 0xef, 0xff, 0xf7,
  0x17, 0xf8, 0xfe, 0xf9, 0x0f, 0xfa, 0xf3, 0x21, 0x05, 0x18, 0xf6, 0xf7,
  0x04, 0x16, 0x13, 0x10, 0xeb, 0xfe, 0x0a, 0xf7, 0x23, 0x03, 0xfc, 0xfe,
  0xfc, 0x14, 0x04, 0x16, 0x03, 0x09, 0xfd, 0x00, 0x13, 0x26, 0x06, 0xe3,
  0x0c, 0x2a, 0xf7, 0xfd, 0xc7, 0x0a, 0x0e, 0xe5, 0xfd, 0xfa, 0x02, 0xe6,
  0x16, 0x0a, 0x08, 0xf8, 0xfc, 0xfa, 0x10, 0x0c, 0x05, 0x02, 0xee, 0x02,
  0x0f, 0x06, 0xfd, 0xee, 0xfa, 0x02, 0x04, 0xfb, 0xf6, 0xde, 0xfe, 0xf7,
  0xf3, 0xfd, 0x00, 0xfd, 0xe1, 0xf6, 0x07, 0x0f, 0x17, 0x03, 0xfa, 0xfe,
  0xff, 0x14, 0x1d, 0x05, 0xfe, 0xfa, 0xfe, 0x0f, 0x1d, 0x13, 0xf5, 0xde,
  0xf9, 0x09, 0xe1, 0x16, 0xf9, 0xde, 0xd5, 0x29, 0xf2, 0xff, 0xc1, 0xf1,
  0xfe, 0xe1, 0xff, 0xff, 0x08, 0xdf, 0xf7, 0x03, 0xec, 0xf7, 0x13, 0xed,
  0xfa, 0xf9, 0xf6, 0x07, 0xf9, 0x08, 0xfa, 0x0c, 0xff, 0x05, 0x0f, 0x07,
  0xf6, 0x04, 0xef, 0xea, 0xfd, 0x04, 0xfc, 0xf2, 0xfe, 0xf0, 0xe8, 0x02,
  0x00, 0x03, 0x0c, 0xfa, 0x11, 0xf9, 0xf9, 0x0e, 0x0c, 0xf7, 0x06, 0xf4,
  0xf5, 0xfd, 0x10, 0x03, 0xff, 0xdc, 0xea, 0xfd, 0xda, 0x0f, 0xfd, 0xd4,
  0xc0, 0x1e, 0xe8, 0x00, 0xc0, 0xe0, 0x0f, 0xec, 0xec, 0x06, 0x06, 0xd9,
  0xf5, 0x0b, 0xf6, 0x03, 0x1b, 0xec, 0xf6, 0xff, 0xfd, 0x10, 0x04, 0x08,
  0xf1, 0x0e, 0xfc, 0x02, 0x17, 0x00, 0xf8, 0x10, 0xec, 0xf1, 0x06, 0xfa,
  0xf6, 0xf1, 0xf7, 0xfb, 0x09, 0x01, 0x02, 0x09, 0x0d, 0x18, 0x18, 0xfd,
  0xec, 0x17, 0xf4, 0x08, 0x0c, 0xf6, 0xf0, 0xfd, 0xfe, 0xf6, 0x01, 0xd9,
  0xe6, 0xfe, 0xdb, 0x01, 0xf5, 0xd5, 0xc7, 0x14, 0xcf, 0x09, 0xd0, 0xe2,
  0x16, 0xe4, 0xf7, 0x00, 0x09, 0xe9, 0xff, 0x0d, 0x0b, 0xfb, 0x0c, 0x04,
  0xf5, 0xf7, 0x03, 0x0c, 0x02, 0x02, 0xf5, 0x06, 0x07, 0xfb, 0x02, 0x00,
  0xfa, 0x02, 0xf7, 0xfa, 0xf3, 0xf7, 0xfb, 0xfa, 0xfd, 0xe7, 0xfa, 0x01,
  0x03, 0x05, 0x0a, 0xf3, 0x03, 0x05, 0xfc, 0x08, 0xf1, 0xeb, 0x04, 0xf5,
  0xf6, 0xf0, 0x01, 0xea, 0x03, 0xef, 0xe5, 0xfc, 0xe1, 0x09, 0xf4, 0xed,
  0xbc, 0x04, 0xc8, 0x0e, 0xd9, 0xe6, 0xf8, 0xe6, 0xf0, 0xf8, 0xfe, 0xe1,
  0xfd, 0x0d, 0xfe, 0x00, 0xfa, 0x02, 0xf2, 0xfb, 0x07, 0x05, 0xfb, 0x13,
  0x0d, 0xfe, 0xfd, 0xef, 0x01, 0x07, 0xf5, 0xed, 0xfe, 0xf4, 0x0b, 0xfa,
  0xfe, 0xee, 0x05, 0xea, 0xfe, 0xfc, 0x01, 0xfb, 0x0f, 0xe8, 0xf8, 0x09,
  0xfb, 0xfa, 0xff, 0xf4, 0x00, 0xf6, 0xfa, 0xff, 0xf6, 0xf3, 0x05, 0xde,
  0xeb, 0x02, 0xee, 0xf6, 0xf2, 0xe7, 0xca, 0x01, 0xc5, 0x0e, 0xdb, 0xc9,
  0xfc, 0xe6, 0xf7, 0xf6, 0xe8, 0xe2, 0x08, 0x0b, 0xfa, 0x0d, 0xf7, 0xfc,
  0x01, 0x08, 0x08, 0x0b, 0xf7, 0x04, 0x0d, 0x04, 0x01, 0xee, 0xfd, 0x01,
  0x06, 0xf3, 0x06, 0xeb, 0xf1, 0xfc, 0xf6, 0xff, 0x03, 0xe2, 0xff, 0xf7,
  0x09, 0xf4, 0x1c, 0xe9, 0xe9, 0xf7, 0x05, 0xec, 0x13, 0xfd, 0xf4, 0xf9,
  0xf8, 0x08, 0xfa, 0xf4, 0x0d, 0xea, 0xe7, 0x14, 0x12, 0xd3, 0xfb, 0xdd,
  0xe3, 0xfb, 0xbf, 0xfd, 0xde, 0xcc, 0xf7, 0xc9, 0xd9, 0xf0, 0xc4, 0xed,
  0x0c, 0xf0, 0x02, 0x08, 0xeb, 0x0c, 0xf9, 0x07, 0x0f, 0x11, 0xf6, 0x15,
  0x07, 0x06, 0x07, 0xde, 0xeb, 0x08, 0x15, 0xe3, 0x16, 0xe5, 0xed, 0x09,
  0xfc, 0xeb, 0x1f, 0xe5, 0xfb, 0x02, 0x0b, 0xfc, 0x21, 0xd1, 0xf1, 0x01,
  0x06, 0xe6, 0x0d, 0xe2, 0xed, 0x05, 0xff, 0xf9, 0xfd, 0xd5, 0x0a, 0x02,
  0xed, 0x0d, 0x18, 0xb0, 0xfb, 0xe9, 0xf0, 0xd7, 0xad, 0xef, 0xe6, 0xf5,
  0x12, 0xf9, 0x0a, 0x06, 0xef, 0x01, 0xfa, 0x01, 0x1e, 0xfb, 0xf6, 0x06,
  0x0d, 0x17, 0xf8, 0x0c, 0xdc, 0xfc, 0x16, 0x13, 0x0a, 0x07, 0xe8, 0x14,
  0x28, 0x03, 0x0d, 0xde, 0xef, 0x23, 0x15, 0xdb, 0x11, 0xcd, 0xfd, 0x0b,
  0x28, 0xe3, 0x2b, 0xd3, 0xea, 0x06, 0x38, 0xfe, 0xfe, 0xc7, 0x15, 0x0f,
  0x2d, 0x0c, 0x2e, 0xdb, 0x0d, 0x0f, 0x27, 0x02, 0xf4, 0xc0, 0x13, 0xf5,
  0xe5, 0xff, 0xd7, 0xd4, 0xe2, 0xef, 0x0e, 0xf5, 0xf4, 0xfe, 0x16, 0xf2,
  0x04, 0xf8, 0x0d, 0x01, 0x09, 0x00, 0x0c, 0x06, 0xfb, 0x0a, 0x09, 0x05,
  0x05, 0x16, 0x0e, 0x0d, 0x01, 0x16, 0x10, 0xfb, 0x26, 0x04, 0xf1, 0x0b,
  0x1e, 0x0b, 0x1a, 0xfe, 0x12, 0x10, 0x10, 0xf9, 0x0d, 0xd6, 0xf7, 0x0a,
  0x1f, 0xfd, 0x02, 0xe0, 0x0c, 0x0e, 0x07, 0x12, 0x0e, 0xda, 0x0c, 0xf6,
  0x1e, 0xf1, 0xe9, 0xd3, 0x04, 0xf8, 0xe7, 0xf4, 0xdb, 0xe6, 0xd3, 0xde,
  0x0f, 0xf7, 0xf0, 0xfe, 0x26, 0xe9, 0x09, 0xf9, 0xff, 0x00, 0x0b, 0x04,
  0x00, 0x12, 0xfa, 0x04, 0x0b, 0x07, 0xfa, 0x06, 0x0c, 0x0f, 0xfd, 0x08,
  0x0f, 0xf8, 0x26, 0xfd, 0xda, 0x07, 0x17, 0x06, 0xff, 0xfc, 0x09, 0x17,
  0x00, 0xf3, 0xf8, 0xce, 0xfc, 0x08, 0x14, 0xf2, 0x01, 0xe9, 0x14, 0x01,
  0x09, 0x0a, 0x04, 0xd8, 0x0f, 0xf2, 0x0b, 0xee, 0xf3, 0xe3, 0x02, 0xf8,
  0xd9, 0xed, 0xd4, 0xf4, 0xe8, 0xe2, 0x06, 0xf1, 0xf7, 0xf5, 0x20, 0xf2,
  0xff, 0x01, 0xfe, 0xf8, 0x06, 0xfd, 0xf8, 0x08, 0xf4, 0x07, 0x11, 0x01,
  0x09, 0x01, 0x0f, 0x08, 0xf4, 0x0e, 0x10, 0xf5, 0x1d, 0x03, 0xe5, 0x09,
  0x0f, 0xff, 0x07, 0xf9, 0xff, 0x12, 0x00, 0xf5, 0x02, 0xde, 0xf2, 0x05,
  0x12, 0x02, 0x00, 0xf9, 0x0d, 0x03, 0x02, 0xf9, 0x04, 0xe3, 0x0b, 0xfb,
  0x0b, 0xe6, 0xf9, 0xe4, 0xfc, 0xf1, 0xde, 0xf8, 0xe3, 0xe2, 0xf9, 0xe7,
  0x07, 0xf8, 0xed, 0xfb, 0x14, 0xea, 0xfa, 0x06, 0xf8, 0xfb, 0x1d, 0xfb,
  0xff, 0x03, 0xf7, 0x02, 0x04, 0x05, 0x04, 0x00, 0x04, 0xfd, 0xf5, 0x02,
  0x0e, 0xee, 0x19, 0xe8, 0xf2, 0x0d, 0x0d, 0xfb, 0x05, 0xfd, 0xfd, 0x10,
  0x03, 0xf8, 0x11, 0xdf, 0xf9, 0x05, 0x05, 0x04, 0xef, 0xf1, 0x0f, 0x06,
  0x06, 0xfc, 0xfd, 0xe4, 0xf9, 0xf5, 0x03, 0xea, 0xf2, 0xf6, 0xf4, 0xf1,
  0xe7, 0xec, 0xe2, 0xec, 0x00, 0xdf, 0x02, 0xfa, 0xee, 0xf9, 0x0a, 0xed,
  0x01, 0x0c, 0xf6, 0xf6, 0x2f, 0xee, 0xf8, 0x0c, 0xfc, 0xf7, 0x01, 0xfe,
  0xfe, 0xfb, 0x02, 0x03, 0xf8, 0xf4, 0xff, 0xf1, 0x0e, 0xf9, 0xec, 0x0b,
  0x04, 0x02, 0x04, 0x0f, 0xfa, 0x05, 0xf8, 0xfe, 0xfc, 0xf5, 0x09, 0xf4,
  0xfd, 0x02, 0xef, 0xef, 0x05, 0xee, 0x0a, 0xf5, 0xfc, 0xf0, 0xf8, 0xf7,
  0x04, 0xea, 0xff, 0x03, 0xee, 0xf8, 0xe9, 0xea, 0xf0, 0xf1, 0xfb, 0xe8,
  0x08, 0xfc, 0xef, 0xfc, 0x0a, 0xfc, 0xf7, 0x08, 0x01, 0xfb, 0x10, 0xfc,
  0x00, 0x08, 0xf2, 0xf5, 0xfa, 0xfa, 0xfe, 0xfc, 0x02, 0xf8, 0xfb, 0xef,
  0xff, 0xfc, 0x09, 0xfe, 0xfd, 0x02, 0xfa, 0x09, 0xf2, 0x08, 0xf6, 0xfb,
  0xfb, 0x1d, 0xe1, 0x01, 0x11, 0xfb, 0xf2, 0xf7, 0xfb, 0xed, 0x0c, 0xef,
  0x16, 0xf2, 0x0c, 0xe7, 0xf8, 0x07, 0x0c, 0xe9, 0x02, 0x00, 0xf4, 0x06,
  0xee, 0xe8, 0xfa, 0xe7, 0x03, 0xfa, 0x04, 0xf8, 0xe9, 0xf2, 0x00, 0xf3,
  0xfd, 0x06, 0x0b, 0x01, 0x1c, 0xfc, 0xf0, 0x06, 0xf9, 0xed, 0xf3, 0x03,
  0x06, 0xf5, 0xfa, 0xfb, 0xf9, 0xea, 0x01, 0x05, 0x0d, 0x00, 0x16, 0xf2,
  0x01, 0x06, 0xd9, 0x0a, 0xf4, 0xf9, 0xf1, 0x1c, 0xda, 0x17, 0x1a, 0x0b,
  0xf7, 0x02, 0x0e, 0xe3, 0x00, 0xf6, 0x17, 0xea, 0x19, 0xe6, 0xfc, 0x07,
  0x0f, 0xe1, 0xff, 0x16, 0xff, 0xf8, 0xf4, 0xee, 0x07, 0x00, 0x00, 0xec,
  0x07, 0xfb, 0xec, 0xf5, 0xee, 0xf9, 0x07, 0x03, 0x0b, 0xf8, 0x10, 0xee,
  0xf8, 0x01, 0x00, 0xfc, 0xf4, 0xf0, 0x0b, 0xfb, 0x03, 0xfb, 0x0c, 0xe9,
  0xf9, 0x06, 0x07, 0x03, 0x2a, 0xeb, 0xfc, 0xfd, 0xd4, 0x0b, 0xff, 0xf2,
  0xdb, 0x23, 0xe7, 0x26, 0x13, 0x03, 0xfd, 0x0e, 0x1b, 0xf3, 0x06, 0xf2,
  0x0d, 0xfc, 0x12, 0xdd, 0xff, 0x04, 0x07, 0xe2, 0x08, 0x04, 0xff, 0xf4,
  0xf7, 0xff, 0x00, 0xf4, 0x19, 0xfe, 0xf5, 0xef, 0xf2, 0xe8, 0xf5, 0x02,
  0x07, 0xf9, 0x16, 0xfc, 0xf7, 0xf2, 0x05, 0x07, 0xff, 0xf0, 0xf9, 0xf9,
  0x06, 0x02, 0xf8, 0xfd, 0x10, 0xf6, 0x0b, 0xff, 0x0a, 0x03, 0x3b, 0xe9,
  0xf0, 0xfc, 0xdd, 0x11, 0x08, 0xec, 0xbd, 0x1a, 0xe6, 0x49, 0x16, 0x00,
  0xf6, 0x1c, 0x28, 0x0f, 0x02, 0xfd, 0x0a, 0x07, 0x13, 0xf3, 0x04, 0x03,
  0x0a, 0xe6, 0x16, 0xfc, 0xf6, 0xf2, 0xf9, 0xf0, 0xf2, 0xfd, 0x0b, 0x0c,
  0xf1, 0xee, 0xe4, 0xef, 0xf2, 0x06, 0x04, 0xf2, 0x0d, 0xfb, 0xfc, 0xe7,
  0x09, 0x01, 0x00, 0xfb, 0xf4, 0xf5, 0xfc, 0x07, 0x0e, 0x01, 0x13, 0xf5,
  0x0a, 0x01, 0x13, 0xfd, 0x38, 0xea, 0xe2, 0xf9, 0xd5, 0x25, 0x0c, 0xec,
  0xab, 0x21, 0xce, 0x54, 0x17, 0x03, 0xe1, 0x23, 0x2c, 0x12, 0x07, 0xef,
  0x08, 0x06, 0x1b, 0x0d, 0x03, 0x06, 0x0b, 0xe0, 0x2a, 0xf8, 0xee, 0x02,
  0xfe, 0xe5, 0x13, 0x0c, 0xdd, 0xed, 0xfb, 0xe1, 0xf8, 0x09, 0x24, 0x07,
  0x04, 0x03, 0x17, 0x0b, 0x0d, 0xef, 0xdd, 0x08, 0x13, 0x06, 0xe2, 0xec,
  0xdb, 0x0b, 0x0a, 0x01, 0x03, 0xed, 0x20, 0x0e, 0x03, 0xd9, 0xff, 0x04,
  0x10, 0xeb, 0x0d, 0xf6, 0xf2, 0xea, 0x0e, 0x12, 0x35, 0x2d, 0xe8, 0xfe,
  0x29, 0x1e, 0x30, 0xf1, 0x0c, 0x0a, 0x2d, 0x09, 0x01, 0xd2, 0x00, 0x14,
  0x08, 0x10, 0xe7, 0xd4, 0x0c, 0xfe, 0xbe, 0xf8, 0x87, 0xdf, 0xd5, 0xfa,
  0x07, 0xf6, 0x16, 0x00, 0xff, 0xff, 0xea, 0x07, 0xff, 0x05, 0x19, 0x06,
  0xdb, 0xf8, 0xfb, 0x01, 0x0a, 0x11, 0xe9, 0xfa, 0xfc, 0x0e, 0xf4, 0xfa,
  0xed, 0xf7, 0xf4, 0x11, 0xea, 0x09, 0xfd, 0xee, 0xf1, 0xd3, 0xf7, 0x04,
  0x05, 0xdf, 0x01, 0xf5, 0xfb, 0x08, 0x01, 0x00, 0x11, 0xef, 0xfa, 0x06,
  0x01, 0xf9, 0xfc, 0x00, 0xf3, 0x01, 0xff, 0xf6, 0x03, 0x08, 0xfd, 0xf0,
  0xfe, 0x0a, 0xcb, 0xb8, 0x09, 0xf0, 0x04, 0x03, 0x09, 0x07, 0xfb, 0xff,
  0x05, 0xff, 0x05, 0x03, 0x07, 0x12, 0xf7, 0x07, 0xf5, 0x00, 0x01, 0x1a,
  0xec, 0xf1, 0xf8, 0x0d, 0x0a, 0x09, 0xf4, 0xfc, 0xdd, 0x02, 0x0a, 0x0b,
  0xf1, 0xf4, 0xed, 0xf1, 0xe9, 0x0a, 0xff, 0xea, 0xff, 0x00, 0x04, 0xfe,
  0xfc, 0xf7, 0x06, 0xea, 0xf1, 0xfa, 0x02, 0xfe, 0xff, 0xeb, 0xf6, 0xfc,
  0x02, 0x04, 0x0b, 0xe9, 0xfc, 0xf2, 0x05, 0x02, 0xfd, 0xdb, 0xee, 0xf8,
  0x01, 0x0d, 0x07, 0xfe, 0xfe, 0x0c, 0x00, 0xf8, 0x06, 0x07, 0x06, 0x12,
  0x0e, 0x01, 0xff, 0xef, 0x03, 0x0f, 0x08, 0xf6, 0xf5, 0xf5, 0x1b, 0x0c,
  0xf6, 0x1e, 0xeb, 0x08, 0x1a, 0x06, 0xf3, 0x1b, 0xef, 0x11, 0xfd, 0xff,
  0xfe, 0x18, 0x14, 0x1b, 0x1b, 0x02, 0xf7, 0x08, 0xf7, 0x0a, 0xf3, 0x03,
  0xfc, 0x02, 0xff, 0x03, 0xff, 0x04, 0xf8, 0x04, 0x06, 0xf5, 0xfc, 0xf4,
  0x09, 0xfd, 0x05, 0xf5, 0x05, 0xfd, 0x05, 0x0b, 0x03, 0xfd, 0xfc, 0x06,
  0x01, 0xf7, 0xfa, 0x05, 0x03, 0x1a, 0x10, 0x06, 0x09, 0x00, 0xfd, 0x04,
  0xfc, 0xfe, 0xe9, 0xef, 0x0d, 0xff, 0xfe, 0x1b, 0xf8, 0xfa, 0x09, 0xfd,
  0x04, 0x0a, 0xfb, 0xf0, 0xfc, 0x02, 0x09, 0x05, 0x0d, 0x0b, 0x19, 0xfb,
  0xfd, 0x20, 0xfc, 0x00, 0xfc, 0xfc, 0xfd, 0x17, 0xf6, 0xff, 0x06, 0xf7,
  0xed, 0x00, 0xf5, 0x0c, 0xfd, 0xf3, 0xfe, 0x08, 0x03, 0x0d, 0xd6, 0x02,
  0x0e, 0x0b, 0x04, 0xff, 0x0e, 0x00, 0x06, 0xf2, 0x02, 0xff, 0x05, 0x0e,
  0x10, 0x10, 0xf9, 0xf3, 0x07, 0x0e, 0xfc, 0xff, 0xf6, 0xf0, 0x01, 0xfb,
  0xf3, 0x12, 0xfd, 0xef, 0x05, 0x02, 0xfb, 0xf9, 0x00, 0xe1, 0xf2, 0xf5,
  0xfe, 0xf0, 0x03, 0x0d, 0x0d, 0xf8, 0x05, 0x1f, 0x05, 0x0c, 0xf5, 0x00,
  0x05, 0x24, 0xfd, 0x00, 0x06, 0xf1, 0xf0, 0x0e, 0xf2, 0x1b, 0x03, 0xf1,
  0xf2, 0x06, 0x07, 0xf4, 0xef, 0xf4, 0x0e, 0x0f, 0xfd, 0xfa, 0x14, 0xf9,
  0x15, 0xf6, 0xfe, 0x05, 0x06, 0x07, 0x09, 0x0b, 0xf8, 0xf4, 0xfc, 0x09,
  0x14, 0xf9, 0x03, 0xf7, 0x08, 0x00, 0xf3, 0xfb, 0xf5, 0xfc, 0xfa, 0x02,
  0xf6, 0xeb, 0xfd, 0xe7, 0xfe, 0xf3, 0x01, 0xee, 0x0c, 0x0b, 0x00, 0xf8,
  0xfd, 0x1c, 0x07, 0xf9, 0xef, 0xf2, 0x04, 0x00, 0x08, 0xff, 0x02, 0xf7,
  0xf8, 0x1c, 0xfa, 0x0e, 0x08, 0xee, 0xf4, 0x0b, 0x0b, 0xf5, 0xef, 0xed,
  0x08, 0xfd, 0x03, 0x03, 0x15, 0xfa, 0x05, 0xff, 0x00, 0x06, 0xf6, 0xff,
  0x17, 0x04, 0xea, 0xfb, 0xf8, 0xfb, 0x16, 0x03, 0xef, 0xf8, 0x10, 0xfd,
  0xf7, 0x0a, 0xfc, 0xee, 0xea, 0xff, 0xf8, 0xf8, 0x04, 0xdc, 0xf2, 0xfd,
  0xf9, 0xd7, 0x07, 0x08, 0xfe, 0xf1, 0xf8, 0x05, 0x07, 0x01, 0xef, 0xed,
  0xfe, 0xf2, 0x00, 0x02, 0xf4, 0xef, 0xf7, 0x10, 0x0c, 0xfe, 0x0a, 0xe8,
  0xee, 0x09, 0x04, 0xfb, 0xe0, 0xff, 0x08, 0xff, 0xfb, 0x04, 0x10, 0xfa,
  0x07, 0x00, 0xfd, 0x00, 0xf9, 0x02, 0x0e, 0xfb, 0xf2, 0xf5, 0xff, 0x04,
  0x11, 0xfc, 0x00, 0xfb, 0xfc, 0x07, 0x04, 0x03, 0x0a, 0xfb, 0xee, 0x05,
  0x06, 0xed, 0x08, 0xdd, 0xea, 0x08, 0x04, 0xcf, 0x13, 0xfe, 0x0b, 0x02,
  0xf5, 0xf6, 0xfd, 0x06, 0xf7, 0xec, 0xf0, 0xf1, 0xf4, 0x05, 0xf3, 0x02,
  0xf9, 0x05, 0x0b, 0xfd, 0x00, 0x02, 0xf3, 0x0a, 0x07, 0x08, 0xf6, 0x01,
  0x0e, 0xf2, 0xfa, 0x04, 0x1c, 0xf7, 0x01, 0x03, 0x05, 0x08, 0x0c, 0x12,
  0x09, 0xfc, 0xd8, 0x0a, 0x04, 0x08, 0x08, 0x01, 0xf9, 0x09, 0x03, 0xff,
  0xff, 0x00, 0x04, 0xe2, 0xd4, 0xfb, 0xff, 0xed, 0x10, 0xca, 0xda, 0x02,
  0x15, 0xdc, 0x1d, 0xe3, 0x05, 0x09, 0x01, 0xea, 0xfe, 0x01, 0x0b, 0x08,
  0xf8, 0xf5, 0x05, 0x1a, 0x00, 0x08, 0xf0, 0xf7, 0x05, 0x0f, 0x0b, 0x0a,
  0xe7, 0x0c, 0xe9, 0x0c, 0xe2, 0xf5, 0x15, 0xf9, 0xfe, 0x12, 0x2b, 0x09,
  0xff, 0x06, 0xff, 0x13, 0x18, 0x39, 0xef, 0x14, 0xa4, 0xfe, 0x28, 0x07,
  0xe7, 0x1e, 0xdf, 0xf4, 0x12, 0xf0, 0xf3, 0x29, 0xdb, 0xbf, 0xb1, 0xe0,
  0x08, 0x29, 0xfb, 0xbb, 0xb9, 0xe9, 0x16, 0x1f, 0x12, 0xb9, 0xcd, 0xfe,
  0x16, 0xff, 0x0f, 0x10, 0xe6, 0x1b, 0x05, 0xd7, 0xfb, 0x27, 0x08, 0x11,
  0xf3, 0x00, 0xef, 0x1f, 0x14, 0x05, 0xe4, 0x16, 0xd7, 0x20, 0xe7, 0xdd,
  0x07, 0x0a, 0xfe, 0xe5, 0xf2, 0xe1, 0x2e, 0x10, 0x05, 0x1e, 0xde, 0x16,
  0x05, 0x10, 0x20, 0x06, 0xf2, 0x04, 0x25, 0x07, 0x10, 0xf9, 0x18, 0x11,
  0x06, 0xf2, 0xf3, 0xe6, 0x1a, 0xf9, 0x00, 0xff, 0xfa, 0xf1, 0xf8, 0x14,
  0xe9, 0xdf, 0x18, 0x07, 0xf3, 0x01, 0x0c, 0xee, 0x11, 0x09, 0xf9, 0x07,
  0x1a, 0xff, 0xfc, 0xb2, 0x00, 0xfb, 0xe7, 0xe5, 0x11, 0xa0, 0xf4, 0xd3,
  0x00, 0xe4, 0xf1, 0x06, 0x2d, 0xec, 0x0d, 0x0f, 0xfb, 0xf1, 0x01, 0xdc,
  0x0e, 0xfc, 0x14, 0x0b, 0xd7, 0x04, 0xfd, 0x0b, 0x07, 0x06, 0xe8, 0xff,
  0x1c, 0xfd, 0xfb, 0x0b, 0x03, 0x10, 0xe4, 0x0d, 0xed, 0xf9, 0x07, 0xfd,
  0xf6, 0xff, 0x01, 0xee, 0xde, 0x02, 0xf8, 0xcc, 0x13, 0x08, 0x0c, 0xfd,
  0x05, 0x10, 0x06, 0x05, 0xfb, 0x08, 0xff, 0xf1, 0xfb, 0xeb, 0xf8, 0xe7,
  0xcf, 0x10, 0xf1, 0xe8, 0x04, 0xc2, 0xf0, 0xdd, 0xf0, 0x0a, 0x0a, 0x01,
  0xfd, 0x03, 0x00, 0xf3, 0xc0, 0xe7, 0xfd, 0xe7, 0x16, 0x0a, 0xe7, 0xed,
  0x14, 0x03, 0x10, 0xfc, 0xef, 0xe9, 0x1f, 0x0a, 0xfb, 0x0c, 0x05, 0xfb,
  0xf2, 0x31, 0x02, 0xf5, 0x09, 0xf8, 0xff, 0x07, 0x02, 0xd3, 0x06, 0xf7,
  0x0a, 0xdb, 0x13, 0xef, 0x15, 0xe7, 0x09, 0x28, 0xea, 0x1b, 0x04, 0xfc,
  0xf3, 0x00, 0xec, 0xf3, 0xfc, 0xfc, 0xf0, 0x0f, 0xf9, 0xe2, 0x0b, 0xd0,
  0xdf, 0xde, 0xfe, 0xfc, 0xe9, 0xf2, 0xf7, 0xe8, 0xd9, 0xef, 0xd7, 0x0a,
  0xfd, 0xf3, 0x08, 0x02, 0xe9, 0xe5, 0xfb, 0x00, 0xfe, 0xfd, 0xfc, 0xea,
  0x01, 0x10, 0xfe, 0x0a, 0x11, 0xf4, 0xf0, 0x28, 0x05, 0xee, 0xfe, 0xf7,
  0x07, 0x03, 0xfc, 0xd5, 0x19, 0xf4, 0x0b, 0xec, 0x09, 0xef, 0x1d, 0xef,
  0xfd, 0x0e, 0xdf, 0x08, 0xfc, 0xf1, 0xf6, 0x01, 0xe1, 0xef, 0xfb, 0xf7,
  0xef, 0x13, 0xf0, 0xf9, 0x09, 0x00, 0xd8, 0xea, 0x08, 0xf3, 0x0c, 0x07,
  0x01, 0xee, 0xff, 0x04, 0xed, 0x02, 0x01, 0xfd, 0x12, 0x0a, 0xfd, 0xef,
  0xee, 0x0c, 0xf5, 0x04, 0x13, 0xf0, 0xef, 0x01, 0x0e, 0x1f, 0x04, 0xfd,
  0xeb, 0x1e, 0x08, 0x03, 0xf0, 0xf4, 0x00, 0xf9, 0x0c, 0xe4, 0x16, 0x05,
  0x05, 0xec, 0x07, 0xeb, 0x1a, 0xf5, 0xfc, 0xf2, 0xe0, 0x0f, 0x01, 0xfd,
  0xef, 0xfc, 0xd6, 0x09, 0xf6, 0x03, 0xe2, 0x17, 0xe4, 0xdf, 0x04, 0xfe,
  0x04, 0x02, 0xf0, 0xf1, 0x24, 0x0b, 0x05, 0x00, 0x07, 0x03, 0xf2, 0x0b,
  0x00, 0xfe, 0x07, 0x04, 0xf5, 0x0d, 0xf0, 0x05, 0xfe, 0x08, 0x04, 0xef,
  0x04, 0x0d, 0x02, 0x14, 0xed, 0xff, 0xfd, 0x07, 0x12, 0x0d, 0xfc, 0xfd,
  0x04, 0xfe, 0x02, 0xe3, 0x02, 0x08, 0x0f, 0xe0, 0x0f, 0xea, 0x03, 0x05,
  0x0b, 0x04, 0xdf, 0xfc, 0x03, 0x00, 0xed, 0xf4, 0xf4, 0x0b, 0x01, 0xee,
  0xe7, 0x15, 0xe0, 0xe9, 0x08, 0xf7, 0x07, 0x02, 0xeb, 0xee, 0xf5, 0xe3,
  0xf8, 0x08, 0xfe, 0xfb, 0xe6, 0xe9, 0x0d, 0xf6, 0x0b, 0x06, 0x01, 0xfd,
  0xf5, 0x08, 0xfc, 0x0c, 0xfe, 0xfc, 0xf0, 0x05, 0x08, 0x08, 0xe7, 0x00,
  0x00, 0xf3, 0x10, 0x0d, 0x02, 0xfb, 0x03, 0x06, 0x12, 0xe2, 0x06, 0x02,
  0x07, 0xe7, 0x0e, 0xed, 0xfa, 0x09, 0x0a, 0x14, 0xeb, 0x05, 0xfb, 0x0e,
  0xfd, 0x03, 0xff, 0x09, 0xfd, 0x07, 0xec, 0x01, 0xef, 0xf3, 0x12, 0x03,
  0xf8, 0x04, 0x13, 0xf2, 0xdf, 0xe4, 0x05, 0x06, 0xec, 0xfe, 0xfd, 0xeb,
  0xf8, 0x01, 0x08, 0x07, 0x0d, 0xf1, 0xf6, 0x08, 0xf5, 0x06, 0xff, 0x00,
  0xe8, 0x03, 0x0a, 0x04, 0xf7, 0x07, 0x08, 0xf7, 0x0e, 0x11, 0xfa, 0x00,
  0x05, 0x0c, 0x0c, 0xf6, 0x15, 0xff, 0x0e, 0xe9, 0x04, 0xed, 0x01, 0x01,
  0x07, 0x08, 0xfd, 0xfa, 0x00, 0x09, 0xfd, 0x01, 0xf6, 0x07, 0xf9, 0x13,
  0xef, 0xf8, 0xfb, 0xf0, 0x10, 0xf9, 0xd9, 0x04, 0x06, 0xfd, 0x07, 0xe3,
  0xf7, 0x18, 0xf2, 0x03, 0x06, 0xd0, 0xf4, 0x14, 0xfa, 0x0a, 0xf4, 0xd6,
  0xf7, 0x0c, 0xed, 0x0a, 0x06, 0x07, 0xe5, 0x08, 0xfa, 0x0a, 0xf9, 0x0a,
  0x0c, 0xfb, 0x01, 0x0a, 0x05, 0x05, 0x00, 0x07, 0x06, 0xfd, 0x0e, 0xff,
  0x08, 0xf5, 0xf8, 0xf3, 0xff, 0x00, 0x03, 0xf3, 0xfd, 0x0f, 0x02, 0xf2,
  0xfb, 0x06, 0xfc, 0xf4, 0x02, 0xee, 0x0c, 0x13, 0x07, 0xda, 0x01, 0x07,
  0xee, 0x14, 0x15, 0xfc, 0xe4, 0xfb, 0xf3, 0x1b, 0x08, 0x12, 0x02, 0xdf,
  0x0c, 0x05, 0xfb, 0xff, 0xf9, 0xe1, 0x12, 0x02, 0xfb, 0x0d, 0xfa, 0x05,
  0xf9, 0x0a, 0x03, 0x09, 0x00, 0x12, 0x01, 0xfe, 0xfe, 0x09, 0x0d, 0x18,
  0xfc, 0xf8, 0x0e, 0x0f, 0x13, 0x12, 0x0a, 0xff, 0xf2, 0xdf, 0x03, 0x15,
  0xfd, 0xfc, 0xf3, 0xfe, 0x08, 0xfd, 0xfd, 0x06, 0xec, 0xd4, 0x07, 0xf9,
  0x14, 0xfb, 0xf2, 0xd2, 0xf7, 0x0c, 0x06, 0x0b, 0x08, 0xfd, 0xd9, 0xf4,
  0xe7, 0x19, 0xed, 0xfe, 0xdc, 0x07, 0x01, 0xe1, 0xf8, 0x07, 0xec, 0x1a,
  0x12, 0xe8, 0x10, 0x0c, 0x0a, 0x1b, 0x0f, 0xf8, 0x0e, 0x14, 0x13, 0x2a,
  0xfc, 0xfd, 0xf6, 0x11, 0x17, 0x29, 0x09, 0xf2, 0x01, 0x0b, 0x24, 0x2e,
  0x15, 0xe1, 0x03, 0xe6, 0x0e, 0x1d, 0x0c, 0xf4, 0xf8, 0x00, 0x0e, 0x31,
  0xfe, 0xf8, 0x02, 0xbf, 0x03, 0x2d, 0x20, 0xdc, 0xfe, 0xc5, 0x02, 0x1b,
  0x28, 0xea, 0x04, 0x07, 0xe1, 0xff, 0xef, 0xe5, 0xbb, 0xe4, 0x18, 0xf7,
  0xf4, 0xee, 0xe8, 0xf4, 0xf9, 0x03, 0xff, 0xfe, 0xf8, 0x0c, 0x0e, 0x0d,
  0xc2, 0x0d, 0x02, 0x20, 0xf0, 0x14, 0xd1, 0x0c, 0x12, 0x2c, 0xcf, 0x01,
  0x10, 0x08, 0xf7, 0xed, 0x08, 0x18, 0x15, 0xf5, 0xe3, 0x98, 0x1b, 0x15,
  0x08, 0xfa, 0xb6, 0xbc, 0x12, 0x06, 0xda, 0x02, 0xc0, 0xf0, 0x16, 0xe8,
  0x81, 0xec, 0x8b, 0x09, 0xf4, 0xdc, 0xb4, 0xd3, 0xf1, 0xec, 0xea, 0x02,
  0xf2, 0xe6, 0xfc, 0x03, 0x1d, 0xe1, 0xfc, 0x0b, 0xfb, 0x04, 0x06, 0xed,
  0xfd, 0x0b, 0xfe, 0x11, 0xf9, 0xfe, 0x20, 0x1b, 0x1c, 0x14, 0x00, 0xfc,
  0x17, 0x21, 0x11, 0x20, 0x1f, 0xfe, 0x0b, 0x35, 0xf8, 0x27, 0x3c, 0x04,
  0x04, 0x3b, 0xfc, 0xf9, 0x22, 0xfd, 0xfd, 0x21, 0xf2, 0xe2, 0x16, 0xfe,
  0xfd, 0x21, 0xe4, 0xf6, 0x10, 0xf6, 0xdf, 0xff, 0xdb, 0xf8, 0x07, 0x0d,
  0xce, 0xe3, 0xc8, 0xcd, 0xc2, 0x17, 0x07, 0xf5, 0x13, 0x0a, 0x1c, 0xfe,
  0xfd, 0x02, 0xf7, 0x0d, 0x27, 0xfb, 0xe2, 0xf8, 0x0a, 0x11, 0xf3, 0xf3,
  0x01, 0x07, 0x20, 0x14, 0xdf, 0xf9, 0x10, 0x0f, 0x08, 0xf2, 0x0b, 0x06,
  0x0d, 0x04, 0x06, 0x10, 0x23, 0xfe, 0xfc, 0x14, 0xef, 0xfa, 0xff, 0xfe,
  0x07, 0x00, 0xf9, 0xe5, 0xfe, 0xfb, 0x04, 0xef, 0xeb, 0xff, 0x15, 0x07,
  0xfe, 0xfa, 0xf9, 0x0f, 0x04, 0x0a, 0xd8, 0xfb, 0xbb, 0xa7, 0xf4, 0x0b,
  0x15, 0x01, 0x13, 0x00, 0x15, 0x04, 0x0d, 0x03, 0xf9, 0xff, 0x13, 0x0e,
  0xec, 0xfd, 0x06, 0x0a, 0xfd, 0xfa, 0xfa, 0x05, 0x18, 0x04, 0xf0, 0x07,
  0xfd, 0xc5, 0xfa, 0xf6, 0xe5, 0xfe, 0x0b, 0xf5, 0x07, 0x02, 0x05, 0x09,
  0xf4, 0x02, 0xe1, 0xe3, 0xf3, 0x07, 0x06, 0xa5, 0xea, 0xec, 0xf4, 0x0a,
  0xfb, 0xee, 0xf9, 0x08, 0x0e, 0xfb, 0xfa, 0x00, 0x16, 0x1d, 0xff, 0x09,
  0xe3, 0x00, 0xc0, 0xbf, 0xdb, 0xeb, 0x14, 0x10, 0x0d, 0xfc, 0x11, 0x08,
  0x09, 0xff, 0x00, 0x03, 0xfc, 0xfd, 0xfd, 0xf9, 0x10, 0x03, 0xfd, 0xfa,
  0x09, 0x06, 0xf9, 0xe7, 0xfa, 0x04, 0xfe, 0xbd, 0xfc, 0xf8, 0xf3, 0xff,
  0x09, 0xf1, 0x02, 0xfe, 0x09, 0xff, 0xf9, 0xfa, 0xe0, 0xe8, 0xe6, 0x02,
  0x01, 0xc9, 0xf9, 0xf1, 0xfc, 0x06, 0xfc, 0xf5, 0x0a, 0xfd, 0x08, 0xff,
  0x00, 0xf4, 0x17, 0x08, 0x03, 0xff, 0xfd, 0xf7, 0xda, 0xbe, 0xfd, 0xeb,
  0x03, 0x10, 0x0e, 0x09, 0x00, 0x09, 0xf9, 0xfc, 0x08, 0x0f, 0xf8, 0x07,
  0x09, 0xf6, 0x10, 0x0b, 0x08, 0xff, 0x0b, 0x06, 0xfa, 0xe8, 0x07, 0x06,
  0x04, 0xed, 0xee, 0xed, 0x03, 0x04, 0xff, 0xf3, 0xf5, 0x12, 0x11, 0x0c,
  0xf1, 0xef, 0xf7, 0xfc, 0xe4, 0x07, 0x00, 0xc9, 0x03, 0x08, 0xf5, 0x08,
  0xfc, 0xf5, 0xfc, 0xfe, 0xff, 0x04, 0x0d, 0xf8, 0x17, 0xeb, 0x02, 0x04,
  0x06, 0xf1, 0xf2, 0xc8, 0xf4, 0x04, 0xfc, 0x0d, 0x0f, 0x03, 0xec, 0x01,
  0xff, 0x01, 0xfd, 0x03, 0xfd, 0x0e, 0xfa, 0x02, 0x0b, 0xfc, 0x0e, 0xfd,
  0x01, 0xff, 0xe3, 0xfb, 0xfd, 0x03, 0xff, 0xfb, 0xf7, 0xf7, 0x01, 0x0a,
  0xfd, 0xfb, 0xf3, 0x14, 0x0e, 0x01, 0x05, 0xfc, 0xfe, 0xe2, 0xda, 0x04,
  0xfa, 0xdd, 0x01, 0xef, 0xf8, 0x05, 0x07, 0xfb, 0xf2, 0xff, 0x05, 0x0d,
  0x01, 0xfc, 0x04, 0xf2, 0x07, 0x04, 0x00, 0xfe, 0x17, 0xbb, 0xe4, 0x02,
  0xfa, 0x05, 0xfb, 0x03, 0xf7, 0x0a, 0x09, 0x03, 0x0a, 0x0b, 0x09, 0x0c,
  0xeb, 0x01, 0x11, 0xfc, 0x11, 0x03, 0x03, 0x03, 0xf4, 0xf4, 0xf6, 0x0b,
  0x00, 0xe3, 0xfe, 0xfb, 0x04, 0x05, 0xff, 0xf7, 0xf7, 0x15, 0x1c, 0x06,
  0x07, 0xf4, 0xfa, 0xe8, 0xf3, 0x00, 0x04, 0xe1, 0xfa, 0x00, 0x09, 0x07,
  0xfc, 0x20, 0x02, 0x0d, 0x03, 0x0c, 0xfe, 0xfd, 0x03, 0x02, 0x11, 0xf8,
  0x01, 0xff, 0x12, 0xc5, 0xef, 0x07, 0x00, 0xf0, 0x01, 0x05, 0xfa, 0x14,
  0xed, 0x04, 0x15, 0x03, 0x04, 0x11, 0xec, 0x07, 0xf2, 0xf0, 0x05, 0x01,
  0x0a, 0xf6, 0xfe, 0x01, 0xf2, 0x01, 0x08, 0xfd, 0xfd, 0xfc, 0xf0, 0xf7,
  0xfd, 0x0d, 0xe9, 0x0a, 0x04, 0xfe, 0x01, 0xff, 0xee, 0xe9, 0xf7, 0xfc,
  0x06, 0xf7, 0xff, 0xfa, 0xff, 0x04, 0x0e, 0x0d, 0x12, 0x0b, 0xf2, 0x0d,
  0xf4, 0xee, 0xf8, 0xfb, 0x10, 0x0b, 0xf0, 0xfe, 0x14, 0xc6, 0x24, 0x26,
  0xf9, 0xf8, 0x05, 0x11, 0xec, 0x28, 0xe5, 0x03, 0x0b, 0xfc, 0xfd, 0xf4,
  0x02, 0xfa, 0xec, 0xf9, 0xee, 0x00, 0xee, 0xf3, 0x01, 0xf0, 0xe8, 0xf5,
  0x0d, 0x05, 0x16, 0xfb, 0xef, 0xfa, 0x03, 0x03, 0xe9, 0x02, 0xfd, 0x03,
  0x02, 0x16, 0xf3, 0x0b, 0xef, 0x04, 0x01, 0x0a, 0x02, 0x00, 0x05, 0xec,
  0x0b, 0x0a, 0x09, 0x01, 0xec, 0x02, 0xf8, 0x05, 0x05, 0xf3, 0x01, 0x0b,
  0xe2, 0x0b, 0x0f, 0xe6, 0x20, 0x2b, 0xef, 0x0d, 0x18, 0x01, 0xf6, 0x28,
  0xea, 0x02, 0xf7, 0xd3, 0xfb, 0xd6, 0x3c, 0xf9, 0xef, 0x00, 0xf5, 0xe4,
  0xec, 0x0c, 0x1f, 0x02, 0xe1, 0xd5, 0xf5, 0x26, 0x11, 0xe7, 0xf4, 0xd3,
  0xee, 0x03, 0xe0, 0xfe, 0xe9, 0xe2, 0xf7, 0x23, 0xe2, 0x1b, 0xec, 0xec,
  0xf8, 0x1c, 0xea, 0xe1, 0xfe, 0xc0, 0x0c, 0x14, 0x1a, 0x23, 0xfc, 0xf4,
  0xfb, 0x05, 0x3a, 0xf6, 0xdb, 0x04, 0xe4, 0x01, 0x11, 0xdf, 0xda, 0xd4,
  0xd4, 0x02, 0xec, 0xe9, 0xbb, 0xba, 0xe6, 0xff, 0xcf, 0xd4, 0xc1, 0xba,
  0xf5, 0xfe, 0xbf, 0xdd, 0xe3, 0xd3, 0xee, 0xef, 0xd4, 0xf3, 0xec, 0xfd,
  0xcc, 0xef, 0xd6, 0xee, 0xe3, 0xfc, 0xce, 0xde, 0xdb, 0xed, 0xf1, 0xfc,
  0xcc, 0xd3, 0x07, 0x14, 0xf9, 0xed, 0xe5, 0x03, 0xf9, 0x15, 0xf9, 0x00,
  0xeb, 0xfb, 0x0e, 0x2c, 0x02, 0x04, 0x06, 0x14, 0x1e, 0x31, 0x1d, 0x16,
  0x0d, 0x2f, 0x15, 0x11, 0xce, 0xb5, 0xc7, 0x02, 0xd5, 0xd9, 0xcf, 0x85,
  0xdc, 0xf7, 0xcf, 0xdd, 0xcf, 0x99, 0xe8, 0xf9, 0xce, 0xe7, 0xdb, 0xc5,
  0xe1, 0xe6, 0xee, 0x05, 0xee, 0xe2, 0xed, 0xe2, 0x09, 0x08, 0xe6, 0xfc,
  0xf9, 0xfb, 0x00, 0x0e, 0xe7, 0x13, 0x0d, 0x09, 0x02, 0x04, 0xf3, 0xff,
  0xee, 0x03, 0xd7, 0x04, 0x00, 0x01, 0x06, 0xf2, 0x04, 0x19, 0xf6, 0x13,
  0x13, 0x0e, 0x2e, 0x23, 0x10, 0x0b, 0x17, 0x29, 0x0c, 0x13, 0xa5, 0xb6,
  0xc9, 0xee, 0xcc, 0xdd, 0xbe, 0xc7, 0xc6, 0xf1, 0xd3, 0xe3, 0xc3, 0xc7,
  0xe1, 0xdb, 0xf9, 0xf0, 0xad, 0xe1, 0x04, 0xef, 0x2d, 0xf7, 0xd4, 0x03,
  0x1d, 0xfd, 0x16, 0x06, 0xf8, 0x03, 0x1c, 0x11, 0x0a, 0x0a, 0xfc, 0xf4,
  0x25, 0x16, 0xfa, 0xfb, 0xe7, 0x02, 0xe6, 0x08, 0xf4, 0xfb, 0xec, 0x06,
  0xfa, 0xeb, 0x00, 0x1d, 0xf1, 0x01, 0x02, 0x0e, 0x13, 0x06, 0xfa, 0xf5,
  0x07, 0x27, 0x09, 0xff, 0xad, 0xd5, 0xb8, 0xe9, 0xba, 0xdb, 0xd3, 0xeb,
  0xd8, 0xf1, 0xbb, 0xfe, 0xdf, 0x01, 0xc7, 0xf1, 0x0c, 0xeb, 0xed, 0xf2,
  0x0f, 0x02, 0xfe, 0xfc, 0xf6, 0x03, 0x11, 0x03, 0x16, 0x01, 0xef, 0x07,
  0xf8, 0x0a, 0x12, 0x09, 0x07, 0x00, 0x09, 0x10, 0xff, 0xfb, 0x00, 0x08,
  0xf5, 0xf9, 0xfd, 0xf4, 0xe7, 0xf5, 0xeb, 0x11, 0xe7, 0x0d, 0xfb, 0xfe,
  0xf9, 0x1b, 0xdf, 0xfd, 0x04, 0xe8, 0xee, 0x18, 0x14, 0x05, 0xfb, 0x0f,
  0xee, 0xd8, 0x09, 0x05, 0xfd, 0xfd, 0xeb, 0xfe, 0xee, 0x0a, 0xff, 0x10,
  0xf0, 0x13, 0x03, 0x03, 0xf7, 0xf8, 0x08, 0xfa, 0xed, 0x07, 0x00, 0xf1,
  0x15, 0x0d, 0x09, 0x02, 0x04, 0xf1, 0x05, 0x0d, 0xfc, 0xfd, 0x01, 0xfe,
  0xfc, 0x14, 0xfa, 0xfe, 0xf5, 0x02, 0xfd, 0xf8, 0x0f, 0x05, 0xee, 0xf5,
  0x00, 0x0f, 0xe2, 0x08, 0x02, 0x06, 0xda, 0x10, 0xfd, 0x0a, 0xfe, 0xd6,
  0xdb, 0x1c, 0x10, 0x06, 0xe9, 0x04, 0x06, 0xd3, 0xf5, 0x1c, 0x08, 0x16,
  0xf7, 0xfb, 0x06, 0x0c, 0x0b, 0x16, 0x16, 0xf1, 0x00, 0x05, 0x0c, 0x0b,
  0x0e, 0xf4, 0xf3, 0xfa, 0x06, 0xfa, 0xf6, 0x08, 0xea, 0xfd, 0x11, 0xee,
  0x03, 0xf5, 0x1b, 0x10, 0x02, 0xf8, 0x00, 0x06, 0x06, 0x14, 0x06, 0xef,
  0xf5, 0x17, 0x06, 0x0b, 0x03, 0xe7, 0xf3, 0x10, 0xfc, 0x04, 0x02, 0xf6,
  0xfb, 0xfc, 0x0f, 0xfe, 0xec, 0xe2, 0xed, 0x19, 0xf9, 0xf5, 0xf9, 0xf7,
  0x16, 0xd1, 0xf7, 0x10, 0x12, 0x1b, 0xe6, 0x1c, 0xfe, 0x0b, 0x19, 0x09,
  0xff, 0xff, 0xf1, 0xfe, 0x07, 0x14, 0x17, 0x06, 0xf4, 0xfc, 0x10, 0xfe,
  0x08, 0xf9, 0xfb, 0xfa, 0x08, 0x03, 0xf3, 0xf6, 0x00, 0x0a, 0x16, 0xf1,
  0x0e, 0xff, 0xfc, 0x09, 0x12, 0xf8, 0x0f, 0x05, 0x20, 0x0c, 0x0d, 0x0e,
  0x03, 0x0d, 0x1d, 0x0f, 0x0b, 0x02, 0x03, 0xf0, 0x15, 0x21, 0x02, 0x09,
  0xf7, 0xff, 0xf9, 0xfe, 0xfb, 0xfb, 0x0c, 0xfa, 0xf8, 0x19, 0x09, 0x13,
  0x06, 0x2d, 0x1f, 0x14, 0x13, 0x17, 0x0c, 0x20, 0xfb, 0x01, 0x0f, 0x1d,
  0x0c, 0x0e, 0x09, 0xf6, 0x0c, 0x0b, 0x0a, 0x04, 0xf5, 0xed, 0x0a, 0x01,
  0x02, 0x07, 0xf6, 0xf7, 0x18, 0x07, 0x09, 0x0a, 0x02, 0x09, 0x05, 0xf8,
  0x05, 0x05, 0x34, 0x1c, 0xff, 0x05, 0x12, 0x0e, 0x11, 0x0f, 0x10, 0x09,
  0x16, 0x02, 0x21, 0x11, 0x16, 0x1c, 0x12, 0x1b, 0x11, 0x16, 0xf6, 0xf0,
  0x06, 0xf4, 0x0a, 0x1c, 0x0a, 0x10, 0x01, 0x1b, 0x15, 0x07, 0x16, 0x12,
  0x0a, 0x0f, 0xf9, 0xf9, 0x12, 0xff, 0xfe, 0x00, 0x02, 0xf9, 0x0b, 0x00,
  0x00, 0x06, 0x06, 0x02, 0xf8, 0xf1, 0xf1, 0x06, 0x0c, 0x17, 0xfa, 0xf2,
  0xf4, 0x10, 0x1a, 0x0f, 0xf1, 0xd5, 0x00, 0x0c, 0x15, 0x0c, 0xf4, 0xda,
  0x09, 0x02, 0x28, 0x16, 0xfa, 0xf1, 0x19, 0xf6, 0x25, 0x03, 0xe0, 0x0c,
  0x1d, 0x00, 0x27, 0x09, 0xec, 0xf4, 0x06, 0xf2, 0x15, 0x06, 0xf0, 0x16,
  0xfd, 0x07, 0x1c, 0x08, 0xf8, 0x0a, 0x01, 0xfb, 0x0a, 0x08, 0xfd, 0xf8,
  0x00, 0x06, 0x02, 0x01, 0x02, 0x09, 0xf2, 0x02, 0xf7, 0x0d, 0x04, 0x01,
  0xdf, 0xfc, 0xf3, 0x19, 0x04, 0xd9, 0xed, 0x07, 0xe5, 0x0f, 0x10, 0xd4,
  0xe1, 0x05, 0xf4, 0x02, 0xf8, 0xd5, 0xf8, 0xfe, 0x17, 0x12, 0xf0, 0xde,
  0x05, 0x06, 0x06, 0x05, 0xe3, 0x13, 0x1a, 0xec, 0x0d, 0xfe, 0x0d, 0x18,
  0xf5, 0xfb, 0x17, 0x0a, 0xe6, 0x19, 0x07, 0x08, 0x20, 0xfe, 0xe6, 0x08,
  0x1b, 0x07, 0x1d, 0xfb, 0x03, 0x07, 0x12, 0x06, 0x17, 0x04, 0x07, 0xfe,
  0x05, 0xfb, 0x04, 0x0a, 0x0e, 0xfc, 0xf7, 0x01, 0xf3, 0xf7, 0x1f, 0xde,
  0x00, 0x13, 0xe6, 0xf6, 0x21, 0xc0, 0xdc, 0xfc, 0xf6, 0x02, 0xe9, 0xc4,
  0x10, 0xf2, 0x14, 0x16, 0xdf, 0xcb, 0x17, 0x0e, 0x0a, 0x05, 0xe9, 0x07,
  0x14, 0xfa, 0x0d, 0x14, 0x1d, 0xfd, 0x0e, 0xfc, 0x23, 0x0b, 0xd1, 0x02,
  0x01, 0xf9, 0xfa, 0x01, 0x07, 0x0e, 0x0c, 0x06, 0xfb, 0xed, 0x34, 0x1e,
  0x26, 0xe8, 0x0c, 0xf9, 0x0b, 0x01, 0x02, 0xf8, 0x10, 0x2f, 0x25, 0xff,
  0xf0, 0x27, 0x02, 0x2c, 0x32, 0x11, 0xda, 0x19, 0xb9, 0x03, 0x11, 0xff,
  0xba, 0xed, 0xfa, 0x2b, 0xf0, 0xf5, 0xc1, 0xf4, 0x07, 0x51, 0xef, 0xec,
  0xfb, 0x0c, 0x1a, 0x1c, 0x06, 0xe3, 0x00, 0x1a, 0xfd, 0xea, 0xfb, 0xeb,
  0x10, 0xe9, 0x04, 0x05, 0xda, 0x20, 0x22, 0xfb, 0x16, 0x0c, 0xef, 0x0b,
  0x0f, 0x0e, 0x14, 0x00, 0x08, 0x05, 0x03, 0xf6, 0xf0, 0xd9, 0xfa, 0x03,
  0x19, 0xdd, 0x06, 0xdd, 0x04, 0x03, 0xfd, 0xfb, 0x09, 0x01, 0xf2, 0xff,
  0xf5, 0x18, 0xf3, 0xef, 0xe9, 0xf9, 0x0b, 0xd0, 0xf5, 0xfc, 0xe5, 0x01,
  0x0a, 0xe7, 0x15, 0x12, 0x0c, 0x0b, 0xf9, 0x0d, 0x10, 0xde, 0x09, 0xf1,
  0xd4, 0xfe, 0xdf, 0x08, 0xf0, 0x05, 0x04, 0xe9, 0x06, 0x05, 0xef, 0x06,
  0xf5, 0xff, 0x04, 0xfa, 0xe7, 0x05, 0x0d, 0x04, 0x0c, 0xf7, 0x0e, 0x03,
  0x02, 0xf8, 0xef, 0xd7, 0x0a, 0x03, 0x06, 0xe2, 0x06, 0x00, 0x08, 0x08,
  0x03, 0xed, 0x0d, 0x00, 0x01, 0x03, 0x04, 0x0e, 0xf8, 0xf6, 0x06, 0x0e,
  0xfc, 0xe7, 0x04, 0xfc, 0x05, 0xfe, 0xfd, 0xf7, 0x12, 0x12, 0x00, 0x0b,
  0xf2, 0x01, 0xee, 0xea, 0xfe, 0x00, 0xc5, 0xfb, 0xca, 0x1b, 0xf4, 0x0b,
  0xf5, 0x08, 0x0f, 0x07, 0xf8, 0x00, 0xeb, 0x0d, 0x05, 0x05, 0x01, 0xfd,
  0x0a, 0x0d, 0x12, 0x07, 0x0e, 0x0b, 0xf6, 0x05, 0xf5, 0xec, 0xfa, 0x09,
  0x05, 0xd9, 0xf8, 0x09, 0x0b, 0x02, 0x00, 0xdf, 0x0f, 0xf3, 0xf5, 0xff,
  0x07, 0xf0, 0xf3, 0xef, 0xef, 0x07, 0x03, 0x15, 0x0e, 0xf0, 0xf7, 0xf7,
  0x0c, 0xf4, 0x07, 0x02, 0x08, 0x09, 0x02, 0x07, 0xe8, 0xc6, 0xfd, 0xff,
  0xdf, 0xfd, 0xea, 0xde, 0xf7, 0x03, 0x01, 0x1d, 0x02, 0x0c, 0xf8, 0x0c,
  0xfe, 0x0d, 0x08, 0x0a, 0xff, 0x03, 0xf7, 0x00, 0x03, 0x0c, 0x0b, 0x03,
  0xfa, 0x03, 0x05, 0xe7, 0xf6, 0x00, 0x14, 0xee, 0xf6, 0x08, 0x11, 0x03,
  0xfc, 0x12, 0xfe, 0xff, 0xf8, 0x05, 0x03, 0xff, 0xe3, 0xf7, 0xf3, 0x04,
  0xfd, 0x01, 0x03, 0xf6, 0xf7, 0xff, 0x14, 0xf2, 0x0b, 0x03, 0xfe, 0x07,
  0x04, 0x09, 0xff, 0xd3, 0x02, 0x0d, 0xf3, 0x03, 0xe4, 0xcd, 0xe7, 0xfd,
  0x09, 0x0c, 0x02, 0x0d, 0xeb, 0x12, 0x06, 0x1a, 0x00, 0xf9, 0xfc, 0xfd,
  0x02, 0x0a, 0xf7, 0xf9, 0xf8, 0xf8, 0xf9, 0x00, 0x02, 0xf4, 0xf3, 0xfa,
  0x0d, 0xf2, 0x0a, 0xfa, 0x04, 0xfa, 0xff, 0x23, 0x04, 0x01, 0x01, 0xfb,
  0x04, 0x19, 0xe7, 0xe0, 0xfe, 0x0a, 0x00, 0xef, 0x05, 0xf1, 0xff, 0x05,
  0x07, 0x0d, 0xfc, 0x03, 0x06, 0x0a, 0x06, 0x07, 0xee, 0xdd, 0xf5, 0x0f,
  0xf7, 0x03, 0xd4, 0xe3, 0xe9, 0xf6, 0x07, 0xf2, 0x0d, 0x01, 0xf0, 0x0b,
  0xf4, 0x0d, 0x06, 0xfd, 0x01, 0xfb, 0x01, 0x0c, 0x00, 0x00, 0xfe, 0xf7,
  0xeb, 0x07, 0x01, 0xf5, 0x04, 0x00, 0x04, 0x06, 0x05, 0xf6, 0xfc, 0x01,
  0x04, 0x08, 0xff, 0x00, 0xf5, 0x03, 0xf7, 0x0e, 0xf2, 0xe3, 0x04, 0x00,
  0x0c, 0xe3, 0x0a, 0x07, 0x00, 0xff, 0xfe, 0x15, 0xff, 0x09, 0x06, 0x03,
  0x05, 0xfd, 0xf8, 0xf6, 0xf7, 0x11, 0xe9, 0xfc, 0xd7, 0xef, 0xfe, 0x00,
  0x02, 0xfa, 0x17, 0xfc, 0xe8, 0x01, 0xfe, 0x0c, 0xf5, 0xfc, 0x01, 0xf7,
  0x01, 0x01, 0x04, 0xfe, 0xfc, 0xf6, 0xe5, 0x0b, 0xfe, 0x06, 0x09, 0xfa,
  0xfe, 0x12, 0x04, 0xf8, 0x09, 0xff, 0x03, 0x02, 0xf9, 0x0a, 0xff, 0xfe,
  0x02, 0x19, 0xea, 0x00, 0x01, 0xf7, 0x04, 0xfc, 0xfd, 0x0a, 0xff, 0x08,
  0xf9, 0x08, 0x01, 0x06, 0x06, 0xfd, 0x03, 0x09, 0xf7, 0xfd, 0xf6, 0x0e,
  0xfe, 0xf8, 0xe3, 0xd5, 0xf0, 0xf0, 0x11, 0x05, 0x0f, 0xfb, 0xfa, 0xfd,
  0x0e, 0xfb, 0xf5, 0xfc, 0xfd, 0xfb, 0xfd, 0x07, 0x1a, 0x02, 0x07, 0xed,
  0xe6, 0x0a, 0xfa, 0x06, 0x0b, 0xf8, 0xf3, 0x0e, 0xf2, 0xfd, 0xfb, 0x02,
  0x07, 0x07, 0x07, 0xef, 0xff, 0xfd, 0x04, 0x00, 0xf1, 0xeb, 0xfc, 0xf7,
  0x02, 0x05, 0xf2, 0xfc, 0x08, 0x13, 0x07, 0x0d, 0xf2, 0xfd, 0x09, 0xfd,
  0x08, 0x08, 0xf5, 0x07, 0xfb, 0xfa, 0x10, 0xf8, 0xd4, 0xdd, 0xe3, 0xe6,
  0x12, 0xfe, 0x08, 0xf4, 0xf1, 0xe4, 0x14, 0xf6, 0xff, 0x07, 0x07, 0x14,
  0xd3, 0x10, 0x20, 0xfd, 0x14, 0xf3, 0x00, 0x05, 0xf1, 0x11, 0x02, 0xfa,
  0xec, 0xf6, 0xd5, 0x15, 0x0d, 0x06, 0xfb, 0x0e, 0x03, 0x05, 0x0d, 0x00,
  0xed, 0xeb, 0xe6, 0xfe, 0x04, 0x00, 0xfd, 0xf3, 0xf3, 0x0a, 0xf2, 0x1d,
  0x01, 0xed, 0xfb, 0xf5, 0x08, 0x11, 0x01, 0x05, 0xea, 0x0a, 0x13, 0xf9,
  0x13, 0xf2, 0xec, 0xe3, 0x09, 0xe3, 0x10, 0xf7, 0xfe, 0xfa, 0x0c, 0xc6,
  0x06, 0x05, 0x0a, 0x08, 0xfb, 0xef, 0xce, 0x0c, 0x14, 0xf2, 0xeb, 0xfa,
  0x15, 0xed, 0xcd, 0x13, 0x09, 0x18, 0x06, 0xbd, 0xfb, 0x2d, 0x0a, 0x19,
  0x09, 0xe8, 0x15, 0x11, 0x23, 0x27, 0xfd, 0xb5, 0x03, 0x07, 0x22, 0x09,
  0x00, 0xe6, 0xfe, 0x10, 0x13, 0x0e, 0xf8, 0x0e, 0xf1, 0xc4, 0xfa, 0xf8,
  0x0b, 0x18, 0xbe, 0x02, 0x1c, 0x0a, 0x0b, 0x01, 0x01, 0xf6, 0xe0, 0xd7,
  0x21, 0x11, 0x20, 0x0a, 0xda, 0xd5, 0x17, 0x14, 0x0e, 0x0d, 0xd7, 0xcf,
  0xd9, 0x14, 0x06, 0x08, 0xd5, 0xbb, 0xc5, 0x18, 0xee, 0xf1, 0xb7, 0xd5,
  0xdd, 0x02, 0xe4, 0xe5, 0xc6, 0xf0, 0xd8, 0x08, 0xf1, 0x0f, 0x03, 0xf8,
  0xd7, 0x12, 0xf2, 0x03, 0xfe, 0x0a, 0xd7, 0xe8, 0x1b, 0x11, 0xf6, 0x17,
  0xcc, 0xff, 0x0c, 0xf0, 0xff, 0xf7, 0xdc, 0x11, 0xbb, 0xfa, 0x02, 0xde,
  0xec, 0x0a, 0xfd, 0xf5, 0xdc, 0xca, 0x00, 0x19, 0x18, 0x04, 0xda, 0xb5,
  0xf7, 0x1c, 0x0f, 0x0a, 0xc8, 0xa4, 0xd3, 0x1a, 0xfa, 0xf3, 0xc7, 0xcf,
  0xbf, 0x15, 0xd6, 0xf7, 0xd9, 0xdd, 0xfa, 0x15, 0xc1, 0xfa, 0xaf, 0xf4,
  0xee, 0xeb, 0x07, 0x03, 0xfe, 0xf3, 0xfb, 0x0c, 0xfb, 0x0d, 0x09, 0x10,
  0x12, 0x00, 0x20, 0x1d, 0x0d, 0x1b, 0xe3, 0x18, 0x09, 0xea, 0x12, 0xfa,
  0x0d, 0x09, 0xb5, 0xf9, 0x02, 0x02, 0xc7, 0x16, 0x01, 0xf1, 0x1c, 0xbc,
  0xdf, 0x25, 0xf9, 0x00, 0xd2, 0xa9, 0xc2, 0x19, 0xfd, 0xfb, 0xc3, 0xa0,
  0xed, 0xfc, 0xc9, 0xf6, 0xb9, 0xdd, 0xee, 0xee, 0x95, 0x0e, 0xd2, 0xf7,
  0xc5, 0xcf, 0xaf, 0x06, 0xd8, 0xec, 0xf5, 0xf0, 0x05, 0xfe, 0xf7, 0xfc,
  0x07, 0x04, 0x04, 0x17, 0x0b, 0x0d, 0x25, 0x13, 0x11, 0x11, 0x19, 0x0f,
  0x08, 0x2d, 0x0c, 0xe4, 0x16, 0xfe, 0x1b, 0x02, 0xd5, 0x0e, 0x15, 0x0c,
  0xcf, 0x03, 0xf6, 0xfd, 0xf9, 0xd7, 0xc5, 0x0d, 0xfe, 0x07, 0xc0, 0xce,
  0xca, 0xfe, 0xe0, 0xf0, 0xbe, 0xc8, 0xef, 0xe5, 0xae, 0xfd, 0xe8, 0x01,
  0xda, 0xca, 0xc2, 0x05, 0x04, 0x0d, 0xed, 0x03, 0xf1, 0xf7, 0x00, 0xf8,
  0x01, 0xf3, 0xeb, 0x01, 0x0c, 0x04, 0x01, 0x01, 0xfa, 0x11, 0x03, 0x0b,
  0x07, 0x0f, 0x09, 0x07, 0x10, 0x02, 0x16, 0x05, 0x0a, 0xf1, 0x04, 0x02,
  0x00, 0xee, 0x0b, 0x0a, 0x05, 0x18, 0x09, 0x04, 0xe5, 0x04, 0x18, 0xee,
  0xa9, 0x14, 0xc1, 0xde, 0xfd, 0xfe, 0xcb, 0xcb, 0xe8, 0xed, 0x08, 0xee,
  0xf8, 0xd3, 0xd7, 0x0d, 0x0e, 0x0a, 0xdf, 0xfe, 0x01, 0x0b, 0xfc, 0x12,
  0xe8, 0x01, 0xf7, 0x05, 0xfc, 0x07, 0xed, 0xf5, 0x07, 0x05, 0x19, 0xfb,
  0x02, 0x01, 0x0f, 0x06, 0x15, 0x07, 0xfa, 0x07, 0x06, 0x05, 0x03, 0x14,
  0x0a, 0x03, 0x0c, 0xf2, 0x08, 0x0b, 0x0f, 0xef, 0x0d, 0x1b, 0xf3, 0x27,
  0x15, 0x0d, 0x01, 0x1e, 0x2b, 0xfb, 0x81, 0x0e, 0xdd, 0xe9, 0x04, 0xf7,
  0xf0, 0xf1, 0x00, 0x06, 0xf7, 0xf4, 0x01, 0x0c, 0x06, 0x18, 0x02, 0xfa,
  0xe4, 0x16, 0x13, 0x05, 0xf6, 0x11, 0xfc, 0xff, 0x0e, 0x06, 0xf9, 0x0c,
  0xfa, 0xfd, 0xff, 0xfd, 0x02, 0x0e, 0xfe, 0xf5, 0x00, 0x00, 0x04, 0x0c,
  0x08, 0xf4, 0x0c, 0xf6, 0x02, 0x1b, 0x0d, 0xf6, 0x04, 0x10, 0x13, 0x13,
  0x0b, 0x09, 0x0c, 0x1a, 0x05, 0x20, 0x1c, 0xf8, 0x1d, 0x38, 0x0d, 0xff,
  0xd4, 0x01, 0xf3, 0xf1, 0xeb, 0xee, 0x21, 0xe4, 0x11, 0x03, 0xf4, 0xfc,
  0x08, 0x05, 0x0b, 0x00, 0x00, 0x01, 0xfe, 0x06, 0x08, 0x0b, 0xf1, 0x07,
  0xf4, 0xfc, 0x06, 0x0f, 0xf8, 0x00, 0x03, 0x07, 0x04, 0xfc, 0xf3, 0x0c,
  0xfc, 0x01, 0x03, 0xfc, 0xef, 0x07, 0xf8, 0x0d, 0x00, 0xfd, 0xe9, 0xf8,
  0x06, 0xfb, 0x05, 0xfd, 0xf5, 0xff, 0x03, 0x17, 0x0b, 0xfd, 0xe6, 0x06,
  0x20, 0x11, 0x0c, 0x29, 0x13, 0x01, 0xfe, 0xec, 0xee, 0xf0, 0x01, 0xf9,
  0x05, 0xe4, 0xf4, 0x07, 0xf3, 0xe8, 0xf3, 0xf1, 0x08, 0x10, 0xe8, 0xea,
  0xf9, 0x02, 0xfd, 0xfe, 0xf3, 0xfc, 0x0b, 0xfc, 0xfc, 0xff, 0x03, 0xfb,
  0x06, 0x07, 0x07, 0x0d, 0xf3, 0xf7, 0x00, 0x05, 0x05, 0x0a, 0xf8, 0x01,
  0x06, 0x11, 0xff, 0xf3, 0xff, 0xfe, 0xf2, 0x00, 0x0b, 0x05, 0xec, 0xfd,
  0xf3, 0x10, 0x04, 0xf8, 0xe6, 0xe8, 0x0f, 0x00, 0xfe, 0xe8, 0x02, 0x05,
  0x0c, 0xf5, 0xf2, 0xe3, 0xec, 0x00, 0xff, 0xf3, 0xfe, 0xfe, 0xfe, 0xef,
  0xfe, 0xf2, 0x01, 0x08, 0xff, 0xed, 0x08, 0x00, 0xf8, 0x0a, 0x04, 0xed,
  0x08, 0x00, 0xf4, 0x00, 0x0a, 0x01, 0x11, 0x0e, 0x0c, 0xfd, 0x10, 0x04,
  0x04, 0xf0, 0x15, 0x02, 0x1f, 0x04, 0x03, 0xf6, 0x0a, 0x0d, 0x10, 0xfd,
  0xf4, 0x03, 0xfc, 0xec, 0xf6, 0xe7, 0xf4, 0x02, 0xe3, 0x0f, 0x1b, 0xd4,
  0xf7, 0x05, 0xf9, 0xf8, 0xf6, 0xfa, 0x13, 0x02, 0xea, 0xdd, 0xf4, 0xf7,
  0x0c, 0xfe, 0xe9, 0xec, 0x0e, 0xe5, 0xff, 0x0f, 0x01, 0xfc, 0x0e, 0xd5,
  0xfa, 0x08, 0xef, 0xfd, 0x12, 0xce, 0x05, 0x07, 0x09, 0x08, 0xe1, 0xe6,
  0x0e, 0x03, 0x3c, 0xf7, 0xf1, 0x05, 0x19, 0x02, 0x3b, 0xf4, 0xe6, 0xfc,
  0x05, 0x0d, 0x2d, 0xfa, 0x01, 0xdf, 0x0a, 0x07, 0xf4, 0xde, 0xf3, 0xcf,
  0x04, 0x0a, 0xfa, 0x10, 0x1f, 0xb4, 0xe5, 0x21, 0xf1, 0x00, 0x0c, 0xef,
  0x0f, 0x16, 0x10, 0xf3, 0xfe, 0xd9, 0x0e, 0x08, 0x08, 0x00, 0xf8, 0xc1,
  0x03, 0x0d, 0x05, 0x02, 0x09, 0xb1, 0xf8, 0x11, 0xf2, 0xf0, 0xf5, 0xa2,
  0xf4, 0x02, 0x08, 0xf1, 0xb5, 0xa5, 0x07, 0xf7, 0x4b, 0x08, 0x92, 0xbd,
  0x2b, 0x0f, 0x5b, 0x08, 0xbe, 0xb8, 0x18, 0x28, 0x2f, 0xd5, 0xef, 0xa8,
  0x01, 0x02, 0xed, 0xc2, 0xf3, 0xae, 0x00, 0xf5, 0x08, 0xfb, 0xef, 0xa6,
  0xda, 0x0a, 0xf5, 0x10, 0xfb, 0x0e, 0xfd, 0x05, 0xe3, 0xf3, 0xd2, 0xfa,
  0xca, 0xeb, 0xd5, 0xde, 0xfb, 0x0a, 0xc1, 0xe8, 0xce, 0xd0, 0xf9, 0xf9,
  0xea, 0xce, 0xd1, 0xf4, 0x1a, 0xe8, 0xf9, 0x12, 0xdb, 0x24, 0x22, 0xeb,
  0xab, 0x27, 0xec, 0x1c, 0xfb, 0xd8, 0xcf, 0x0e, 0xdd, 0x0f, 0x07, 0xe6,
  0xdb, 0xf2, 0xcc, 0xee, 0xdd, 0xf2, 0xe2, 0xd9, 0xed, 0xfb, 0xdd, 0xde,
  0xcc, 0xcf, 0xff, 0x09, 0xcf, 0xe7, 0x26, 0xe1, 0x27, 0xff, 0x10, 0x05,
  0xf4, 0xfd, 0xd5, 0xf6, 0x13, 0xfd, 0xd6, 0xf8, 0xfe, 0xfd, 0xfd, 0x00,
  0xe7, 0x06, 0xf8, 0xfa, 0x0a, 0xed, 0xfd, 0x04, 0xeb, 0xf4, 0x1e, 0xee,
  0x08, 0x12, 0xe9, 0x07, 0x1a, 0xf3, 0xe9, 0x03, 0xfa, 0xf4, 0xf4, 0xed,
  0xef, 0xe6, 0x0f, 0x16, 0x05, 0xe2, 0x01, 0x0e, 0x04, 0x11, 0xea, 0xe6,
  0x05, 0x0c, 0xf2, 0xf6, 0xec, 0xed, 0xe7, 0x00, 0xe7, 0xee, 0xe5, 0xdf,
  0x08, 0xf1, 0x00, 0xe0, 0x3f, 0x2f, 0xe1, 0xf6, 0xf3, 0x00, 0x19, 0xfd,
  0xe8, 0x0f, 0x01, 0x06, 0xf5, 0xfb, 0x01, 0xfd, 0xed, 0xf7, 0x12, 0x04,
  0x0c, 0x0e, 0xf8, 0xf6, 0x1e, 0xf2, 0x05, 0x0c, 0xfc, 0x02, 0x0d, 0xe0,
  0xfd, 0x03, 0x02, 0xed, 0xe4, 0xe8, 0xfa, 0xfc, 0xf9, 0x08, 0x06, 0xf3,
  0x02, 0x0c, 0xf6, 0x0a, 0xfb, 0xe4, 0x02, 0xfe, 0xfd, 0xfc, 0xf2, 0xea,
  0xef, 0x05, 0xd7, 0xf9, 0xfc, 0xf7, 0xfc, 0xef, 0xf8, 0xd6, 0x3c, 0x20,
  0xdf, 0xfe, 0x02, 0x11, 0x2b, 0x05, 0xef, 0x14, 0x09, 0xff, 0x15, 0x07,
  0x0a, 0xfb, 0xfc, 0x06, 0x11, 0x00, 0x09, 0x19, 0x0c, 0x04, 0x0e, 0xfb,
  0x04, 0xf4, 0x02, 0x07, 0x0c, 0xf7, 0xf8, 0xec, 0xfa, 0xf2, 0xee, 0xe5,
  0xee, 0xdc, 0xef, 0x0c, 0xf6, 0xf1, 0xee, 0xf5, 0xfd, 0x06, 0x00, 0xf8,
  0x03, 0x00, 0x07, 0xfd, 0xf3, 0xf9, 0xf9, 0xf4, 0xe5, 0xfe, 0xfa, 0x03,
  0xfd, 0xe2, 0x0b, 0xed, 0x4b, 0x0d, 0xf3, 0x00, 0xf4, 0x07, 0x22, 0x12,
  0x05, 0x10, 0xf6, 0x03, 0x0d, 0x02, 0x0a, 0xf6, 0x06, 0x03, 0x04, 0x0d,
  0x0f, 0xfe, 0x04, 0xff, 0x0d, 0x04, 0x08, 0xfa, 0x03, 0xf8, 0x11, 0x05,
  0xf8, 0xe7, 0x04, 0xff, 0x04, 0xf2, 0xea, 0xe4, 0xfe, 0x1f, 0xf6, 0xfd,
  0xf0, 0xfd, 0x01, 0x0f, 0xef, 0xf0, 0x0c, 0xfe, 0xf7, 0xfa, 0xfc, 0x01,
  0x00, 0xeb, 0xf7, 0xe6, 0x04, 0x03, 0x0d, 0xdc, 0x0f, 0xe6, 0x32, 0x0f,
  0x0b, 0x00, 0xf5, 0x01, 0x10, 0x17, 0x14, 0x0a, 0xfc, 0x0b, 0xfa, 0x03,
  0x0c, 0x04, 0xfc, 0xf6, 0xfe, 0x08, 0x1a, 0xf7, 0x0e, 0xf5, 0x03, 0x05,
  0x10, 0x0d, 0x06, 0x0a, 0x04, 0x07, 0x0c, 0xff, 0xff, 0x07, 0x03, 0xfd,
  0xf9, 0x00, 0x01, 0x0f, 0xfa, 0xf3, 0xfe, 0xfd, 0xfd, 0x08, 0xed, 0xf3,
  0xff, 0x06, 0xfd, 0xf8, 0xfb, 0xfa, 0xfe, 0xfa, 0x14, 0xf8, 0x0b, 0xfa,
  0x16, 0xe6, 0x1d, 0x01, 0x2d, 0x11, 0xff, 0x00, 0xf2, 0x01, 0x11, 0x11,
  0x0f, 0x0f, 0xff, 0x06, 0xf8, 0x04, 0x04, 0x07, 0xfb, 0x08, 0xfb, 0x09,
  0x15, 0x01, 0x11, 0xf7, 0xf7, 0x04, 0x0c, 0x13, 0xf9, 0xfc, 0xfd, 0x04,
  0x15, 0xfe, 0x04, 0xf6, 0xf1, 0xf3, 0x07, 0xfe, 0x0c, 0x09, 0xfc, 0xf8,
  0x01, 0xf5, 0xfc, 0x09, 0xfd, 0x01, 0x08, 0x0b, 0x0a, 0xfa, 0xf8, 0x01,
  0x06, 0x00, 0x0f, 0xf1, 0xff, 0x02, 0x05, 0xee, 0x0b, 0x02, 0x2b, 0x05,
  0xe4, 0x0d, 0xfb, 0x0b, 0x01, 0x0b, 0x09, 0x17, 0x04, 0x0e, 0x04, 0x12,
  0x0c, 0x0a, 0x00, 0x07, 0xf4, 0x0d, 0x04, 0x03, 0x08, 0x02, 0xfa, 0x0f,
  0x0f, 0xfb, 0x00, 0xfb, 0xf9, 0x08, 0x0a, 0xf0, 0x06, 0xfb, 0x05, 0x00,
  0xf7, 0xf0, 0x14, 0x05, 0xfa, 0xfd, 0x08, 0xfe, 0x0c, 0x01, 0xfd, 0x02,
  0x01, 0x02, 0x07, 0x08, 0xfe, 0xfe, 0x10, 0xf2, 0x11, 0xfb, 0x0f, 0x01,
  0x0b, 0xf9, 0x0f, 0x07, 0x3e, 0x12, 0xe3, 0x04, 0xfe, 0x10, 0x15, 0x0c,
  0xf3, 0x18, 0x00, 0x05, 0x10, 0x05, 0x0e, 0x02, 0xf9, 0x01, 0xfe, 0xfe,
  0x07, 0x0b, 0x05, 0x09, 0x0b, 0x0f, 0x0f, 0x00, 0xfa, 0xf7, 0xff, 0x0c,
  0x08, 0xfc, 0x09, 0x0b, 0x01, 0x0b, 0xfb, 0xf1, 0x12, 0x04, 0xfc, 0x04,
  0x0c, 0x08, 0x0d, 0x11, 0xfd, 0x0b, 0xfd, 0x12, 0x0b, 0x01, 0xff, 0x08,
  0x16, 0xf5, 0x0e, 0xf4, 0x08, 0xfd, 0x04, 0xfe, 0x0d, 0x06, 0x33, 0x07,
  0xd6, 0x0e, 0xf5, 0x19, 0x05, 0xf7, 0xef, 0x1c, 0xf1, 0x0e, 0x08, 0xf9,
  0x0b, 0x04, 0x02, 0xff, 0x04, 0x0a, 0x03, 0x0b, 0x10, 0x0a, 0xfe, 0x00,
  0x0f, 0x01, 0x0e, 0x10, 0xec, 0x16, 0x0a, 0x05, 0x04, 0x0e, 0xf5, 0x16,
  0x09, 0x02, 0x06, 0xf1, 0xf0, 0x14, 0x0e, 0xfe, 0x10, 0xf7, 0xfe, 0x0d,
  0xff, 0x0e, 0x06, 0xf0, 0xff, 0x0c, 0x1b, 0xf7, 0x0a, 0xf4, 0x09, 0x09,
  0x08, 0x0c, 0x1f, 0xfd, 0x26, 0xf7, 0xde, 0x1e, 0xfb, 0x0c, 0xeb, 0xed,
  0x10, 0x22, 0xfb, 0x0c, 0xf8, 0x10, 0x17, 0xf9, 0x1a, 0x0c, 0x0b, 0x1c,
  0x08, 0xf9, 0x21, 0x09, 0x03, 0x17, 0x09, 0xf0, 0x0c, 0x18, 0xed, 0x15,
  0x0f, 0xf8, 0x10, 0x02, 0xef, 0x1f, 0x11, 0xf1, 0x1f, 0xf2, 0xf1, 0x23,
  0x0b, 0xea, 0x0c, 0x0e, 0x05, 0x12, 0xfa, 0x1a, 0x04, 0x01, 0xff, 0xff,
  0x14, 0x06, 0x13, 0xd8, 0x04, 0xe9, 0x13, 0x15, 0x1b, 0xe9, 0xe9, 0xca,
  0xe6, 0xec, 0xcb, 0xe8, 0xda, 0xdb, 0xcb, 0xf8, 0xd3, 0xe7, 0x02, 0xd7,
  0xd8, 0xed, 0xcf, 0xf1, 0xfc, 0xde, 0xde, 0xf7, 0xec, 0x06, 0xeb, 0xfa,
  0xf8, 0xfd, 0x02, 0x03, 0xf1, 0x02, 0x16, 0xef, 0x0d, 0x04, 0xe6, 0x07,
  0x17, 0xff, 0xf9, 0x05, 0xdb, 0x13, 0x03, 0xfc, 0x00, 0xfd, 0xfa, 0x09,
  0x25, 0x00, 0x0b, 0x03, 0x05, 0x10, 0x17, 0xf4, 0x14, 0xff, 0x0a, 0x11,
  0xfb, 0xdb, 0x0c, 0x1d, 0xd8, 0xca, 0xe7, 0xe6, 0xbb, 0xe5, 0xe2, 0xdc,
  0xc6, 0xf1, 0xde, 0xfd, 0x02, 0xe4, 0xc1, 0xf7, 0xd6, 0xf1, 0xf7, 0xc9,
  0xfa, 0xf5, 0xea, 0x0e, 0xfb, 0x0c, 0xe1, 0x10, 0x05, 0xf9, 0x0d, 0x06,
  0x07, 0xfa, 0xfd, 0x09, 0x02, 0x03, 0x06, 0xf2, 0x0e, 0x0a, 0xf3, 0x06,
  0x15, 0xfe, 0x18, 0xf5, 0xfe, 0x01, 0x1a, 0xf7, 0x11, 0x11, 0xff, 0x10,
  0xfe, 0xfb, 0x0f, 0x17, 0xfd, 0x16, 0xf9, 0xd8, 0x03, 0x25, 0xe0, 0xd0,
  0xf9, 0xe6, 0xcc, 0xe5, 0xc2, 0xcd, 0xe7, 0xf2, 0xe9, 0xfd, 0xe3, 0xe7,
  0xea, 0x0f, 0xe0, 0x08, 0x19, 0xdd, 0xdd, 0xf6, 0xf2, 0x07, 0x1a, 0xed,
  0xfa, 0x14, 0x27, 0x06, 0x06, 0x0f, 0xf8, 0xf7, 0x00, 0x04, 0x0e, 0x0c,
  0xef, 0xfe, 0x09, 0x04, 0xfd, 0xff, 0x17, 0xf2, 0x08, 0xf8, 0xfe, 0x01,
  0x12, 0xea, 0x03, 0x0f, 0x06, 0x11, 0x19, 0xf4, 0x23, 0x00, 0xfe, 0x1c,
  0x29, 0xe2, 0x20, 0x27, 0xdf, 0xb7, 0xf8, 0xe9, 0xc7, 0xea, 0xb1, 0xbd,
  0xf1, 0x04, 0xdd, 0xe6, 0xd6, 0xbd, 0xf7, 0xfe, 0xd3, 0x0a, 0x0d, 0xd2,
  0xeb, 0x14, 0x19, 0x0b, 0xe4, 0xe3, 0xeb, 0x0d, 0xf6, 0x05, 0xf6, 0x07,
  0x00, 0x06, 0x0e, 0x06, 0x03, 0x0d, 0x0c, 0x0c, 0x13, 0x03, 0x0a, 0x06,
  0x09, 0xff, 0xfe, 0x00, 0x01, 0x0a, 0x07, 0xef, 0x0b, 0x14, 0x04, 0x10,
  0x19, 0xfd, 0x1f, 0x07, 0x08, 0x0a, 0x29, 0xe6, 0x2e, 0x16, 0xbf, 0xdf,
  0xd0, 0xe6, 0xef, 0xe4, 0xcd, 0xbf, 0xd5, 0x09, 0x0a, 0xe6, 0xba, 0xbf,
  0xd7, 0x09, 0xd7, 0xf3, 0xec, 0xdc, 0xea, 0x08, 0xf6, 0x0c, 0x05, 0xf1,
  0xf2, 0x04, 0x09, 0x12, 0xfa, 0xfa, 0x02, 0x12, 0x12, 0x0d, 0x0a, 0x05,
  0xfc, 0x13, 0x05, 0x08, 0x01, 0x08, 0x11, 0x05, 0x0d, 0x05, 0x0a, 0x0f,
  0x04, 0x03, 0x10, 0x0e, 0xfe, 0x09, 0x11, 0x05, 0x03, 0xf7, 0x13, 0xff,
  0x12, 0xdb, 0x0c, 0xfc, 0x0a, 0x2b, 0xb2, 0x03, 0x18, 0xc8, 0xf2, 0xeb,
  0xc3, 0xdc, 0xcd, 0xcc, 0xe6, 0xe2, 0xc2, 0xba, 0xd9, 0xe1, 0xed, 0xe9,
  0xf5, 0xfa, 0x01, 0x0e, 0x04, 0xf3, 0xec, 0x09, 0x0b, 0x10, 0xf3, 0xf6,
  0xfd, 0x13, 0x00, 0x0c, 0x03, 0x03, 0x07, 0x0c, 0x05, 0x00, 0xf4, 0x09,
  0x04, 0xfe, 0x07, 0x00, 0x03, 0x0d, 0x11, 0xfb, 0x0c, 0xeb, 0xf3, 0x10,
  0x12, 0x06, 0xfc, 0xf6, 0x09, 0x10, 0x0e, 0xef, 0x01, 0xe1, 0x27, 0x22,
  0xb9, 0x44, 0x23, 0xe4, 0x08, 0x06, 0xc9, 0xc2, 0xf2, 0xe4, 0xf8, 0xfe,
  0xd3, 0xbd, 0x04, 0xfd, 0xe9, 0xe7, 0xd1, 0xef, 0xfe, 0x08, 0xff, 0xf1,
  0xf3, 0x14, 0xfc, 0x0b, 0xf4, 0xfd, 0xfd, 0x11, 0x0e, 0x12, 0xff, 0x0b,
  0x01, 0x12, 0x14, 0x05, 0xfd, 0x06, 0x02, 0xf4, 0xfe, 0xfd, 0xf3, 0x13,
  0x00, 0xf4, 0xf5, 0xfd, 0xf7, 0x0b, 0x10, 0xf6, 0xff, 0xf0, 0x02, 0x0d,
  0x06, 0xec, 0x04, 0xea, 0x11, 0x1b, 0xf4, 0x3c, 0x1d, 0xe7, 0xfd, 0x08,
  0xfa, 0xce, 0xf1, 0xeb, 0xf2, 0x08, 0x0b, 0xd3, 0xfd, 0xf8, 0xf8, 0x00,
  0x08, 0xdd, 0x0a, 0x0a, 0x03, 0xff, 0xf0, 0xfa, 0x14, 0x1f, 0xf8, 0xfd,
  0xfd, 0x07, 0x17, 0x1a, 0xf0, 0x0f, 0x03, 0xfb, 0x0a, 0x04, 0xf7, 0x0c,
  0xfe, 0xf2, 0xf0, 0xf1, 0xf2, 0x12, 0x04, 0xf1, 0x00, 0xfc, 0xff, 0x0b,
  0x0b, 0xf2, 0xf5, 0x08, 0xf3, 0x17, 0x0a, 0xee, 0x0b, 0x0d, 0x10, 0x1c,
  0x00, 0x28, 0x0e, 0xe7, 0xf7, 0x03, 0x0b, 0xdf, 0xee, 0xea, 0xe0, 0xfc,
  0x09, 0xfa, 0x01, 0xf1, 0xd7, 0x0a, 0x08, 0xfc, 0x05, 0x00, 0xea, 0x04,
  0xfc, 0xf5, 0x11, 0x11, 0xdd, 0x0c, 0x08, 0xfe, 0x08, 0x0a, 0xf1, 0xff,
  0x06, 0x09, 0xed, 0x04, 0xf6, 0x18, 0x01, 0x05, 0xe5, 0xf6, 0xf0, 0x14,
  0x15, 0xfa, 0xf5, 0x0d, 0xfa, 0x1f, 0x1e, 0x11, 0x10, 0xff, 0xfc, 0x1f,
  0x10, 0x0c, 0x09, 0x13, 0x0b, 0x24, 0xfc, 0x1a, 0x1b, 0xf6, 0x18, 0x07,
  0x08, 0xe5, 0xf6, 0xf1, 0xf1, 0x03, 0xf6, 0xef, 0x02, 0xf7, 0xe7, 0x10,
  0x05, 0xf8, 0x1f, 0xfc, 0xce, 0x01, 0x0e, 0x05, 0x13, 0x0f, 0xee, 0x00,
  0x11, 0x0f, 0xf7, 0x01, 0x0b, 0x09, 0xf5, 0x03, 0xea, 0xfc, 0x03, 0xf5,
  0x14, 0x08, 0xc9, 0x02, 0xf0, 0x04, 0x07, 0x11, 0x04, 0x16, 0x09, 0x12,
  0x0a, 0x0c, 0x15, 0x0c, 0xf5, 0x0d, 0x24, 0x0f, 0x14, 0x1c, 0xdf, 0x03,
  0x16, 0x05, 0xf1, 0xe5, 0x1c, 0x12, 0xfb, 0xe5, 0xdf, 0xe3, 0x0e, 0xfa,
  0xea, 0xf2, 0xf3, 0x06, 0xdb, 0xfd, 0xf8, 0xfe, 0x11, 0x0b, 0xd4, 0xf9,
  0x08, 0x09, 0xf8, 0xfd, 0xfe, 0x10, 0x05, 0x12, 0xdb, 0x01, 0x12, 0xf2,
  0xe6, 0x01, 0xb6, 0xf8, 0x0f, 0xdf, 0xe9, 0xf1, 0xd1, 0x0d, 0xfc, 0x02,
  0x01, 0x0a, 0x04, 0x0f, 0x01, 0x1c, 0x07, 0x0e, 0x0f, 0x07, 0x01, 0x02,
  0x1a, 0x18, 0x11, 0x0a, 0x00, 0x00, 0x00, 0x00, 0x00, 0x00, 0x00, 0x00,
  0x7e, 0xfe, 0xff, 0xff, 0x04, 0x00, 0x00, 0x00, 0x28, 0x00, 0x00, 0x00,
  0xf6, 0x01, 0x00, 0x00, 0xb0, 0xfe, 0xff, 0xff, 0xe9, 0x02, 0x00, 0x00,
  0xe8, 0x00, 0x00, 0x00, 0x03, 0xfc, 0xff, 0xff, 0x3c, 0x00, 0x00, 0x00,
  0x66, 0xff, 0xff, 0xff, 0x04, 0x02, 0x00, 0x00, 0xb5, 0xfe, 0xff, 0xff,
  0x27, 0xff, 0xff, 0xff, 0x00, 0x00, 0x00, 0x00, 0x00, 0x00, 0x00, 0x00,
  0x00, 0x00, 0x00, 0x00, 0xbe, 0xfe, 0xff, 0xff, 0x04, 0x00, 0x00, 0x00,
  0x18, 0x00, 0x00, 0x00, 0x1c, 0xf9, 0xff, 0xff, 0x96, 0x0c, 0x00, 0x00,
  0x5e, 0x1e, 0x00, 0x00, 0xcc, 0x15, 0x00, 0x00, 0x94, 0x0a, 0x00, 0x00,
  0x34, 0xfc, 0xff, 0xff, 0x00, 0x00, 0x00, 0x00, 0x00, 0x00, 0x00, 0x00,
  0x00, 0x00, 0x00, 0x00, 0xee, 0xfe, 0xff, 0xff, 0x04, 0x00, 0x00, 0x00,
  0x18, 0x00, 0x00, 0x00, 0x60, 0x0b, 0x00, 0x00, 0xf3, 0x02, 0x00, 0x00,
  0x31, 0xff, 0xff, 0xff, 0x8e, 0x07, 0x00, 0x00, 0xf3, 0xff, 0xff, 0xff,
  0xe4, 0x01, 0x00, 0x00, 0x00, 0x00, 0x00, 0x00, 0x00, 0x00, 0x00, 0x00,
  0x00, 0x00, 0x00, 0x00, 0x1e, 0xff, 0xff, 0xff, 0x04, 0x00, 0x00, 0x00,
  0x08, 0x00, 0x00, 0x00, 0xff, 0xff, 0xff, 0xff, 0xd6, 0x02, 0x00, 0x00,
  0x00, 0x00, 0x00, 0x00, 0x20, 0xf2, 0xff, 0xff, 0x00, 0x00, 0x00, 0x00,
  0x00, 0x00, 0x00, 0x00, 0x00, 0x00, 0x00, 0x00, 0x30, 0xf2, 0xff, 0xff,
  0x00, 0x00, 0x00, 0x00, 0x00, 0x00, 0x00, 0x00, 0x0f, 0x00, 0x00, 0x00,
  0x4d, 0x4c, 0x49, 0x52, 0x20, 0x43, 0x6f, 0x6e, 0x76, 0x65, 0x72, 0x74,
  0x65, 0x64, 0x2e, 0x00, 0x01, 0x00, 0x00, 0x00, 0x14, 0x00, 0x00, 0x00,
  0x00, 0x00, 0x0e, 0x00, 0x18, 0x00, 0x04, 0x00, 0x08, 0x00, 0x0c, 0x00,
  0x10, 0x00, 0x14, 0x00, 0x0e, 0x00, 0x00, 0x00, 0x34, 0x02, 0x00, 0x00,
  0x28, 0x02, 0x00, 0x00, 0x1c, 0x02, 0x00, 0x00, 0x14, 0x00, 0x00, 0x00,
  0x04, 0x00, 0x00, 0x00, 0x04, 0x00, 0x00, 0x00, 0x6d, 0x61, 0x69, 0x6e,
  0x00, 0x00, 0x00, 0x00, 0x08, 0x00, 0x00, 0x00, 0xe0, 0x01, 0x00, 0x00,
  0x88, 0x01, 0x00, 0x00, 0x24, 0x01, 0x00, 0x00, 0xd4, 0x00, 0x00, 0x00,
  0xac, 0x00, 0x00, 0x00, 0x74, 0x00, 0x00, 0x00, 0x28, 0x00, 0x00, 0x00,
  0x04, 0x00, 0x00, 0x00, 0x4a, 0xfe, 0xff, 0xff, 0x06, 0x00, 0x00, 0x00,
  0x10, 0x00, 0x00, 0x00, 0x04, 0x00, 0x00, 0x00, 0x01, 0x00, 0x00, 0x00,
  0x0f, 0x00, 0x00, 0x00, 0x01, 0x00, 0x00, 0x00, 0x0d, 0x00, 0x00, 0x00,
  0x22, 0xff, 0xff, 0xff, 0x00, 0x00, 0x00, 0x09, 0x04, 0x00, 0x00, 0x00,
  0x24, 0x00, 0x00, 0x00, 0x18, 0x00, 0x00, 0x00, 0x0c, 0x00, 0x00, 0x00,
  0x00, 0x00, 0x06, 0x00, 0x08, 0x00, 0x04, 0x00, 0x06, 0x00, 0x00, 0x00,
  0x00, 0x00, 0x80, 0x3f, 0x01, 0x00, 0x00, 0x00, 0x0d, 0x00, 0x00, 0x00,
  0x01, 0x00, 0x00, 0x00, 0x0c, 0x00, 0x00, 0x00, 0x00, 0x00, 0x0e, 0x00,
  0x18, 0x00, 0x08, 0x00, 0x0c, 0x00, 0x10, 0x00, 0x07, 0x00, 0x14, 0x00,
  0x0e, 0x00, 0x00, 0x00, 0x00, 0x00, 0x00, 0x08, 0x03, 0x00, 0x00, 0x00,
  0x18, 0x00, 0x00, 0x00, 0x0c, 0x00, 0x00, 0x00, 0x04, 0x00, 0x00, 0x00,
  0x30, 0xf3, 0xff, 0xff, 0x01, 0x00, 0x00, 0x00, 0x0c, 0x00, 0x00, 0x00,
  0x03, 0x00, 0x00, 0x00, 0x0b, 0x00, 0x00, 0x00, 0x05, 0x00, 0x00, 0x00,
  0x04, 0x00, 0x00, 0x00, 0xe6, 0xfe, 0xff, 0xff, 0x02, 0x00, 0x00, 0x00,
  0x10, 0x00, 0x00, 0x00, 0x04, 0x00, 0x00, 0x00, 0x01, 0x00, 0x00, 0x00,
  0x0b, 0x00, 0x00, 0x00, 0x02, 0x00, 0x00, 0x00, 0x0a, 0x00, 0x00, 0x00,
  0x01, 0x00, 0x00, 0x00, 0x62, 0xff, 0xff, 0xff, 0x00, 0x00, 0x00, 0x01,
  0x24, 0x00, 0x00, 0x00, 0x18, 0x00, 0x00, 0x00, 0x04, 0x00, 0x00, 0x00,
  0x54, 0xff, 0xff, 0xff, 0x00, 0x00, 0x01, 0x01, 0x01, 0x00, 0x00, 0x00,
  0x01, 0x00, 0x00, 0x00, 0x01, 0x00, 0x00, 0x00, 0x0a, 0x00, 0x00, 0x00,
  0x03, 0x00, 0x00, 0x00, 0x09, 0x00, 0x00, 0x00, 0x07, 0x00, 0x00, 0x00,
  0x03, 0x00, 0x00, 0x00, 0x00, 0x00, 0x0e, 0x00, 0x1a, 0x00, 0x08, 0x00,
  0x0c, 0x00, 0x10, 0x00, 0x07, 0x00, 0x14, 0x00, 0x0e, 0x00, 0x00, 0x00,
  0x00, 0x00, 0x00, 0x05, 0x01, 0x00, 0x00, 0x00, 0x3c, 0x00, 0x00, 0x00,
  0x30, 0x00, 0x00, 0x00, 0x14, 0x00, 0x00, 0x00, 0x00, 0x00, 0x0e, 0x00,
  0x18, 0x00, 0x07, 0x00, 0x08, 0x00, 0x0c, 0x00, 0x10, 0x00, 0x14, 0x00,
  0x0e, 0x00, 0x00, 0x00, 0x00, 0x00, 0x00, 0x01, 0x02, 0x00, 0x00, 0x00,
  0x02, 0x00, 0x00, 0x00, 0x02, 0x00, 0x00, 0x00, 0x02, 0x00, 0x00, 0x00,
  0x01, 0x00, 0x00, 0x00, 0x09, 0x00, 0x00, 0x00, 0x01, 0x00, 0x00, 0x00,
  0x08, 0x00, 0x00, 0x00, 0x00, 0x00, 0x0e, 0x00, 0x14, 0x00, 0x00, 0x00,
  0x08, 0x00, 0x0c, 0x00, 0x07, 0x00, 0x10, 0x00, 0x0e, 0x00, 0x00, 0x00,
  0x00, 0x00, 0x00, 0x01, 0x30, 0x00, 0x00, 0x00, 0x24, 0x00, 0x00, 0x00,
  0x10, 0x00, 0x00, 0x00, 0x0c, 0x00, 0x10, 0x00, 0x06, 0x00, 0x08, 0x00,
  0x0c, 0x00, 0x07, 0x00, 0x0c, 0x00, 0x00, 0x00, 0x00, 0x00, 0x01, 0x01,
  0x01, 0x00, 0x00, 0x00, 0x01, 0x00, 0x00, 0x00, 0x01, 0x00, 0x00, 0x00,
  0x08, 0x00, 0x00, 0x00, 0x03, 0x00, 0x00, 0x00, 0x00, 0x00, 0x00, 0x00,
  0x06, 0x00, 0x00, 0x00, 0x02, 0x00, 0x00, 0x00, 0x00, 0x00, 0x0a, 0x00,
  0x10, 0x00, 0x04, 0x00, 0x08, 0x00, 0x0c, 0x00, 0x0a, 0x00, 0x00, 0x00,
  0x05, 0x00, 0x00, 0x00, 0x10, 0x00, 0x00, 0x00, 0x04, 0x00, 0x00, 0x00,
  0x01, 0x00, 0x00, 0x00, 0x00, 0x00, 0x00, 0x00, 0x01, 0x00, 0x00, 0x00,
  0x0e, 0x00, 0x00, 0x00, 0x01, 0x00, 0x00, 0x00, 0x0f, 0x00, 0x00, 0x00,
  0x01, 0x00, 0x00, 0x00, 0x0e, 0x00, 0x00, 0x00, 0x10, 0x00, 0x00, 0x00,
  0xd4, 0x0b, 0x00, 0x00, 0x40, 0x0b, 0x00, 0x00, 0x94, 0x0a, 0x00, 0x00,
  0x04, 0x0a, 0x00, 0x00, 0xb0, 0x09, 0x00, 0x00, 0x04, 0x09, 0x00, 0x00,
  0xe0, 0x07, 0x00, 0x00, 0xbc, 0x06, 0x00, 0x00, 0xf8, 0x04, 0x00, 0x00,
  0x14, 0x04, 0x00, 0x00, 0x98, 0x02, 0x00, 0x00, 0xcc, 0x01, 0x00, 0x00,
  0x08, 0x01, 0x00, 0x00, 0x9c, 0x00, 0x00, 0x00, 0x54, 0x00, 0x00, 0x00,
  0x04, 0x00, 0x00, 0x00, 0xc8, 0xff, 0xff, 0xff, 0x28, 0x00, 0x00, 0x00,
  0x14, 0x00, 0x00, 0x00, 0x04, 0x00, 0x00, 0x00, 0x02, 0x00, 0x00, 0x00,
  0xff, 0xff, 0xff, 0xff, 0x0a, 0x00, 0x00, 0x00, 0x08, 0x00, 0x00, 0x00,
  0x49, 0x64, 0x65, 0x6e, 0x74, 0x69, 0x74, 0x79, 0x00, 0x00, 0x00, 0x00,
  0x02, 0x00, 0x00, 0x00, 0x01, 0x00, 0x00, 0x00, 0x0a, 0x00, 0x00, 0x00,
  0x14, 0x00, 0x10, 0x00, 0x04, 0x00, 0x00, 0x00, 0x00, 0x00, 0x08, 0x00,
  0x00, 0x00, 0x00, 0x00, 0x00, 0x00, 0x0c, 0x00, 0x14, 0x00, 0x00, 0x00,
  0x2c, 0x00, 0x00, 0x00, 0x1c, 0x00, 0x00, 0x00, 0x04, 0x00, 0x00, 0x00,
  0x04, 0x00, 0x00, 0x00, 0xff, 0xff, 0xff, 0xff, 0x1c, 0x00, 0x00, 0x00,
  0x1c, 0x00, 0x00, 0x00, 0x01, 0x00, 0x00, 0x00, 0x07, 0x00, 0x00, 0x00,
  0x69, 0x6e, 0x70, 0x75, 0x74, 0x5f, 0x32, 0x00, 0x04, 0x00, 0x00, 0x00,
  0x01, 0x00, 0x00, 0x00, 0x1c, 0x00, 0x00, 0x00, 0x1c, 0x00, 0x00, 0x00,
  0x01, 0x00, 0x00, 0x00, 0x10, 0xf5, 0xff, 0xff, 0x00, 0x00, 0x00, 0x09,
  0x54, 0x00, 0x00, 0x00, 0x0e, 0x00, 0x00, 0x00, 0x38, 0x00, 0x00, 0x00,
  0x14, 0x00, 0x00, 0x00, 0x04, 0x00, 0x00, 0x00, 0x02, 0x00, 0x00, 0x00,
  0xff, 0xff, 0xff, 0xff, 0x0a, 0x00, 0x00, 0x00, 0x44, 0xf6, 0xff, 0xff,
  0x14, 0x00, 0x00, 0x00, 0x04, 0x00, 0x00, 0x00, 0x01, 0x00, 0x00, 0x00,
  0x80, 0xff, 0xff, 0xff, 0xff, 0xff, 0xff, 0xff, 0x01, 0x00, 0x00, 0x00,
  0x00, 0x00, 0x80, 0x3b, 0x0d, 0x00, 0x00, 0x00, 0x49, 0x64, 0x65, 0x6e,
  0x74, 0x69, 0x74, 0x79, 0x5f, 0x69, 0x6e, 0x74, 0x38, 0x00, 0x00, 0x00,
  0x02, 0x00, 0x00, 0x00, 0x01, 0x00, 0x00, 0x00, 0x0a, 0x00, 0x00, 0x00,
  0x78, 0xf5, 0xff, 0xff, 0x00, 0x00, 0x00, 0x09, 0xac, 0x00, 0x00, 0x00,
  0x0d, 0x00, 0x00, 0x00, 0x54, 0x00, 0x00, 0x00, 0x14, 0x00, 0x00, 0x00,
  0x04, 0x00, 0x00, 0x00, 0x02, 0x00, 0x00, 0x00, 0xff, 0xff, 0xff, 0xff,
  0x0a, 0x00, 0x00, 0x00, 0x5c, 0xf5, 0xff, 0xff, 0x30, 0x00, 0x00, 0x00,
  0x24, 0x00, 0x00, 0x00, 0x18, 0x00, 0x00, 0x00, 0x04, 0x00, 0x00, 0x00,
  0x01, 0x00, 0x00, 0x00, 0x0b, 0x00, 0x00, 0x00, 0x00, 0x00, 0x00, 0x00,
  0x00, 0x00, 0x00, 0x00, 0x01, 0x00, 0x00, 0x00, 0xda, 0xdd, 0x3e, 0x3f,
  0x01, 0x00, 0x00, 0x00, 0x12, 0x51, 0xad, 0x42, 0x01, 0x00, 0x00, 0x00,
  0xe7, 0xec, 0xce, 0xc2, 0x49, 0x00, 0x00, 0x00, 0x73, 0x65, 0x71, 0x75,
  0x65, 0x6e, 0x74, 0x69, 0x61, 0x6c, 0x2f, 0x64, 0x65, 0x6e, 0x73, 0x65,
  0x2f, 0x42, 0x69, 0x61, 0x73, 0x41, 0x64, 0x64, 0x3b, 0x53, 0x74, 0x61,
  0x74, 0x65, 0x66, 0x75, 0x6c, 0x50, 0x61, 0x72, 0x74, 0x69, 0x74, 0x69,
  0x6f, 0x6e, 0x65, 0x64, 0x43, 0x61, 0x6c, 0x6c, 0x2f, 0x73, 0x65, 0x71,
  0x75, 0x65, 0x6e, 0x74, 0x69, 0x61, 0x6c, 0x2f, 0x64, 0x65, 0x6e, 0x73,
  0x65, 0x2f, 0x42, 0x69, 0x61, 0x73, 0x41, 0x64, 0x64, 0x00, 0x00, 0x00,
  0x02, 0x00, 0x00, 0x00, 0x01, 0x00, 0x00, 0x00, 0x0a, 0x00, 0x00, 0x00,
  0x38, 0xf6, 0xff, 0xff, 0x00, 0x00, 0x00, 0x09, 0xb4, 0x00, 0x00, 0x00,
  0x0c, 0x00, 0x00, 0x00, 0x54, 0x00, 0x00, 0x00, 0x14, 0x00, 0x00, 0x00,
  0x04, 0x00, 0x00, 0x00, 0x02, 0x00, 0x00, 0x00, 0xff, 0xff, 0xff, 0xff,
  0xd6, 0x02, 0x00, 0x00, 0x1c, 0xf6, 0xff, 0xff, 0x30, 0x00, 0x00, 0x00,
  0x24, 0x00, 0x00, 0x00, 0x18, 0x00, 0x00, 0x00, 0x04, 0x00, 0x00, 0x00,
  0x01, 0x00, 0x00, 0x00, 0x80, 0xff, 0xff, 0xff, 0xff, 0xff, 0xff, 0xff,
  0x00, 0x00, 0x00, 0x00, 0x01, 0x00, 0x00, 0x00, 0x1f, 0xe9, 0x42, 0x3d,
  0x01, 0x00, 0x00, 0x00, 0x36, 0x26, 0x42, 0x41, 0x01, 0x00, 0x00, 0x00,
  0x00, 0x00, 0x00, 0x00, 0x51, 0x00, 0x00, 0x00, 0x73, 0x65, 0x71, 0x75,
  0x65, 0x6e, 0x74, 0x69, 0x61, 0x6c, 0x2f, 0x66, 0x6c, 0x61, 0x74, 0x74,
  0x65, 0x6e, 0x5f, 0x31, 0x2f, 0x52, 0x65, 0x73, 0x68, 0x61, 0x70, 0x65,
  0x3b, 0x53, 0x74, 0x61, 0x74, 0x65, 0x66, 0x75, 0x6c, 0x50, 0x61, 0x72,
  0x74, 0x69, 0x74, 0x69, 0x6f, 0x6e, 0x65, 0x64, 0x43, 0x61, 0x6c, 0x6c,
  0x2f, 0x73, 0x65, 0x71, 0x75, 0x65, 0x6e, 0x74, 0x69, 0x61, 0x6c, 0x2f,
  0x66, 0x6c, 0x61, 0x74, 0x74, 0x65, 0x6e, 0x5f, 0x31, 0x2f, 0x52, 0x65,
  0x73, 0x68, 0x61, 0x70, 0x65, 0x00, 0x00, 0x00, 0x02, 0x00, 0x00, 0x00,
  0x01, 0x00, 0x00, 0x00, 0xd6, 0x02, 0x00, 0x00, 0x00, 0xf7, 0xff, 0xff,
  0x00, 0x00, 0x00, 0x09, 0x5c, 0x01, 0x00, 0x00, 0x0b, 0x00, 0x00, 0x00,
  0x5c, 0x00, 0x00, 0x00, 0x1c, 0x00, 0x00, 0x00, 0x04, 0x00, 0x00, 0x00,
  0x04, 0x00, 0x00, 0x00, 0xff, 0xff, 0xff, 0xff, 0x0b, 0x00, 0x00, 0x00,
  0x0b, 0x00, 0x00, 0x00, 0x06, 0x00, 0x00, 0x00, 0xec, 0xf6, 0xff, 0xff,
  0x30, 0x00, 0x00, 0x00, 0x24, 0x00, 0x00, 0x00, 0x18, 0x00, 0x00, 0x00,
  0x04, 0x00, 0x00, 0x00, 0x01, 0x00, 0x00, 0x00, 0x80, 0xff, 0xff, 0xff,
  0xff, 0xff, 0xff, 0xff, 0x00, 0x00, 0x00, 0x00, 0x01, 0x00, 0x00, 0x00,
  0x1f, 0xe9, 0x42, 0x3d, 0x01, 0x00, 0x00, 0x00, 0x36, 0x26, 0x42, 0x41,
  0x01, 0x00, 0x00, 0x00, 0x00, 0x00, 0x00, 0x00, 0xf1, 0x00, 0x00, 0x00,
  0x73, 0x65, 0x71, 0x75, 0x65, 0x6e, 0x74, 0x69, 0x61, 0x6c, 0x2f, 0x63,
  0x6f, 0x6e, 0x76, 0x32, 0x64, 0x5f, 0x33, 0x2f, 0x52, 0x65, 0x6c, 0x75,
  0x3b, 0x53, 0x74, 0x61, 0x74, 0x65, 0x66, 0x75, 0x6c, 0x50, 0x61, 0x72,
  0x74, 0x69, 0x74, 0x69, 0x6f, 0x6e, 0x65, 0x64, 0x43, 0x61, 0x6c, 0x6c,
  0x2f, 0x73, 0x65, 0x71, 0x75, 0x65, 0x6e, 0x74, 0x69, 0x61, 0x6c, 0x2f,
  0x63, 0x6f, 0x6e, 0x76, 0x32, 0x64, 0x5f, 0x33, 0x2f, 0x52, 0x65, 0x6c,
  0x75, 0x3b, 0x73, 0x65, 0x71, 0x75, 0x65, 0x6e, 0x74, 0x69, 0x61, 0x6c,
  0x2f, 0x63, 0x6f, 0x6e, 0x76, 0x32, 0x64, 0x5f, 0x33, 0x2f, 0x42, 0x69,
  0x61, 0x73, 0x41, 0x64, 0x64, 0x3b, 0x53, 0x74, 0x61, 0x74, 0x65, 0x66,
  0x75, 0x6c, 0x50, 0x61, 0x72, 0x74, 0x69, 0x74, 0x69, 0x6f, 0x6e, 0x65,
  0x64, 0x43, 0x61, 0x6c, 0x6c, 0x2f, 0x73, 0x65, 0x71, 0x75, 0x65, 0x6e,
  0x74, 0x69, 0x61, 0x6c, 0x2f, 0x63, 0x6f, 0x6e, 0x76, 0x32, 0x64, 0x5f,
  0x33, 0x2f, 0x42, 0x69, 0x61, 0x73, 0x41, 0x64, 0x64, 0x3b, 0x73, 0x65,
  0x71, 0x75, 0x65, 0x6e, 0x74, 0x69, 0x61, 0x6c, 0x2f, 0x63, 0x6f, 0x6e,
  0x76, 0x32, 0x64, 0x5f, 0x33, 0x2f, 0x43, 0x6f, 0x6e, 0x76, 0x32, 0x44,
  0x3b, 0x53, 0x74, 0x61, 0x74, 0x65, 0x66, 0x75, 0x6c, 0x50, 0x61, 0x72,
  0x74, 0x69, 0x74, 0x69, 0x6f, 0x6e, 0x65, 0x64, 0x43, 0x61, 0x6c, 0x6c,
  0x2f, 0x73, 0x65, 0x71, 0x75, 0x65, 0x6e, 0x74, 0x69, 0x61, 0x6c, 0x2f,
  0x63, 0x6f, 0x6e, 0x76, 0x32, 0x64, 0x5f, 0x33, 0x2f, 0x43, 0x6f, 0x6e,
  0x76, 0x32, 0x44, 0x3b, 0x75, 0x6e, 0x6b, 0x6e, 0x6f, 0x77, 0x6e, 0x5f,
  0x32, 0x00, 0x00, 0x00, 0x04, 0x00, 0x00, 0x00, 0x01, 0x00, 0x00, 0x00,
  0x0b, 0x00, 0x00, 0x00, 0x0b, 0x00, 0x00, 0x00, 0x06, 0x00, 0x00, 0x00,
  0x78, 0xf8, 0xff, 0xff, 0x00, 0x00, 0x00, 0x09, 0xc4, 0x00, 0x00, 0x00,
  0x0a, 0x00, 0x00, 0x00, 0x58, 0x00, 0x00, 0x00, 0x1c, 0x00, 0x00, 0x00,
  0x04, 0x00, 0x00, 0x00, 0x04, 0x00, 0x00, 0x00, 0xff, 0xff, 0xff, 0xff,
  0x0d, 0x00, 0x00, 0x00, 0x0d, 0x00, 0x00, 0x00, 0x06, 0x00, 0x00, 0x00,
  0x64, 0xf8, 0xff, 0xff, 0x2c, 0x00, 0x00, 0x00, 0x20, 0x00, 0x00, 0x00,
  0x14, 0x00, 0x00, 0x00, 0x04, 0x00, 0x00, 0x00, 0x01, 0x00, 0x00, 0x00,
  0x80, 0xff, 0xff, 0xff, 0xff, 0xff, 0xff, 0xff, 0x01, 0x00, 0x00, 0x00,
  0x98, 0x0d, 0x04, 0x3c, 0x01, 0x00, 0x00, 0x00, 0x8a, 0x89, 0x03, 0x40,
  0x01, 0x00, 0x00, 0x00, 0x00, 0x00, 0x00, 0x00, 0x5d, 0x00, 0x00, 0x00,
  0x73, 0x65, 0x71, 0x75, 0x65, 0x6e, 0x74, 0x69, 0x61, 0x6c, 0x2f, 0x6d,
  0x61, 0x78, 0x5f, 0x70, 0x6f, 0x6f, 0x6c, 0x69, 0x6e, 0x67, 0x32, 0x64,
  0x5f, 0x31, 0x2f, 0x4d, 0x61, 0x78, 0x50, 0x6f, 0x6f, 0x6c, 0x3b, 0x53,
  0x74, 0x61, 0x74, 0x65, 0x66, 0x75, 0x6c, 0x50, 0x61, 0x72, 0x74, 0x69,
  0x74, 0x69, 0x6f, 0x6e, 0x65, 0x64, 0x43, 0x61, 0x6c, 0x6c, 0x2f, 0x73,
  0x65, 0x71, 0x75, 0x65, 0x6e, 0x74, 0x69, 0x61, 0x6c, 0x2f, 0x6d, 0x61,
  0x78, 0x5f, 0x70, 0x6f, 0x6f, 0x6c, 0x69, 0x6e, 0x67, 0x32, 0x64, 0x5f,
  0x31, 0x2f, 0x4d, 0x61, 0x78, 0x50, 0x6f, 0x6f, 0x6c, 0x00, 0x00, 0x00,
  0x04, 0x00, 0x00, 0x00, 0x01, 0x00, 0x00, 0x00, 0x0d, 0x00, 0x00, 0x00,
  0x0d, 0x00, 0x00, 0x00, 0x06, 0x00, 0x00, 0x00, 0x58, 0xf9, 0xff, 0xff,
  0x00, 0x00, 0x00, 0x09, 0xa4, 0x01, 0x00, 0x00, 0x09, 0x00, 0x00, 0x00,
  0x58, 0x00, 0x00, 0x00, 0x1c, 0x00, 0x00, 0x00, 0x04, 0x00, 0x00, 0x00,
  0x04, 0x00, 0x00, 0x00, 0xff, 0xff, 0xff, 0xff, 0x1a, 0x00, 0x00, 0x00,
  0x1a, 0x00, 0x00, 0x00, 0x06, 0x00, 0x00, 0x00, 0x44, 0xf9, 0xff, 0xff,
  0x2c, 0x00, 0x00, 0x00, 0x20, 0x00, 0x00, 0x00, 0x14, 0x00, 0x00, 0x00,
  0x04, 0x00, 0x00, 0x00, 0x01, 0x00, 0x00, 0x00, 0x80, 0xff, 0xff, 0xff,
  0xff, 0xff, 0xff, 0xff, 0x01, 0x00, 0x00, 0x00, 0x98, 0x0d, 0x04, 0x3c,
  0x01, 0x00, 0x00, 0x00, 0x8a, 0x89, 0x03, 0x40, 0x01, 0x00, 0x00, 0x00,
  0x00, 0x00, 0x00, 0x00, 0x3f, 0x01, 0x00, 0x00, 0x73, 0x65, 0x71, 0x75,
  0x65, 0x6e, 0x74, 0x69, 0x61, 0x6c, 0x2f, 0x63, 0x6f, 0x6e, 0x76, 0x32,
  0x64, 0x5f, 0x32, 0x2f, 0x52, 0x65, 0x6c, 0x75, 0x3b, 0x53, 0x74, 0x61,
  0x74, 0x65, 0x66, 0x75, 0x6c, 0x50, 0x61, 0x72, 0x74, 0x69, 0x74, 0x69,
  0x6f, 0x6e, 0x65, 0x64, 0x43, 0x61, 0x6c, 0x6c, 0x2f, 0x73, 0x65, 0x71,
  0x75, 0x65, 0x6e, 0x74, 0x69, 0x61, 0x6c, 0x2f, 0x63, 0x6f, 0x6e, 0x76,
  0x32, 0x64, 0x5f, 0x32, 0x2f, 0x52, 0x65, 0x6c, 0x75, 0x3b, 0x73, 0x65,
  0x71, 0x75, 0x65, 0x6e, 0x74, 0x69, 0x61, 0x6c, 0x2f, 0x63, 0x6f, 0x6e,
  0x76, 0x32, 0x64, 0x5f, 0x32, 0x2f, 0x42, 0x69, 0x61, 0x73, 0x41, 0x64,
  0x64, 0x3b, 0x53, 0x74, 0x61, 0x74, 0x65, 0x66, 0x75, 0x6c, 0x50, 0x61,
  0x72, 0x74, 0x69, 0x74, 0x69, 0x6f, 0x6e, 0x65, 0x64, 0x43, 0x61, 0x6c,
  0x6c, 0x2f, 0x73, 0x65, 0x71, 0x75, 0x65, 0x6e, 0x74, 0x69, 0x61, 0x6c,
  0x2f, 0x63, 0x6f, 0x6e, 0x76, 0x32, 0x64, 0x5f, 0x32, 0x2f, 0x42, 0x69,
  0x61, 0x73, 0x41, 0x64, 0x64, 0x3b, 0x73, 0x65, 0x71, 0x75, 0x65, 0x6e,
  0x74, 0x69, 0x61, 0x6c, 0x2f, 0x63, 0x6f, 0x6e, 0x76, 0x32, 0x64, 0x5f,
  0x33, 0x2f, 0x43, 0x6f, 0x6e, 0x76, 0x32, 0x44, 0x3b, 0x53, 0x74, 0x61,
  0x74, 0x65, 0x66, 0x75, 0x6c, 0x50, 0x61, 0x72, 0x74, 0x69, 0x74, 0x69,
  0x6f, 0x6e, 0x65, 0x64, 0x43, 0x61, 0x6c, 0x6c, 0x2f, 0x73, 0x65, 0x71,
  0x75, 0x65, 0x6e, 0x74, 0x69, 0x61, 0x6c, 0x2f, 0x63, 0x6f, 0x6e, 0x76,
  0x32, 0x64, 0x5f, 0x33, 0x2f, 0x43, 0x6f, 0x6e, 0x76, 0x32, 0x44, 0x3b,
  0x73, 0x65, 0x71, 0x75, 0x65, 0x6e, 0x74, 0x69, 0x61, 0x6c, 0x2f, 0x63,
  0x6f, 0x6e, 0x76, 0x32, 0x64, 0x5f, 0x32, 0x2f, 0x43, 0x6f, 0x6e, 0x76,
  0x32, 0x44, 0x3b, 0x53, 0x74, 0x61, 0x74, 0x65, 0x66, 0x75, 0x6c, 0x50,
  0x61, 0x72, 0x74, 0x69, 0x74, 0x69, 0x6f, 0x6e, 0x65, 0x64, 0x43, 0x61,
  0x6c, 0x6c, 0x2f, 0x73, 0x65, 0x71, 0x75, 0x65, 0x6e, 0x74, 0x69, 0x61,
  0x6c, 0x2f, 0x63, 0x6f, 0x6e, 0x76, 0x32, 0x64, 0x5f, 0x32, 0x2f, 0x43,
  0x6f, 0x6e, 0x76, 0x32, 0x44, 0x3b, 0x75, 0x6e, 0x6b, 0x6e, 0x6f, 0x77,
  0x6e, 0x5f, 0x30, 0x00, 0x04, 0x00, 0x00, 0x00, 0x01, 0x00, 0x00, 0x00,
  0x1a, 0x00, 0x00, 0x00, 0x1a, 0x00, 0x00, 0x00, 0x06, 0x00, 0x00, 0x00,
  0xa2, 0xfb, 0xff, 0xff, 0x00, 0x00, 0x00, 0x09, 0x04, 0x01, 0x00, 0x00,
  0x08, 0x00, 0x00, 0x00, 0xa8, 0x00, 0x00, 0x00, 0x04, 0x00, 0x00, 0x00,
  0xec, 0xfa, 0xff, 0xff, 0x80, 0x00, 0x00, 0x00, 0x60, 0x00, 0x00, 0x00,
  0x40, 0x00, 0x00, 0x00, 0x04, 0x00, 0x00, 0x00, 0x06, 0x00, 0x00, 0x00,
  0x00, 0x00, 0x00, 0x00, 0x00, 0x00, 0x00, 0x00, 0x00, 0x00, 0x00, 0x00,
  0x00, 0x00, 0x00, 0x00, 0x00, 0x00, 0x00, 0x00, 0x00, 0x00, 0x00, 0x00,
  0x00, 0x00, 0x00, 0x00, 0x00, 0x00, 0x00, 0x00, 0x00, 0x00, 0x00, 0x00,
  0x00, 0x00, 0x00, 0x00, 0x00, 0x00, 0x00, 0x00, 0x00, 0x00, 0x00, 0x00,
  0x00, 0x00, 0x00, 0x00, 0x06, 0x00, 0x00, 0x00, 0xda, 0xbc, 0x55, 0x3c,
  0xb1, 0xa1, 0x1b, 0x3c, 0x92, 0x56, 0x18, 0x3c, 0x29, 0x63, 0xf3, 0x3b,
  0x93, 0x8a, 0x6e, 0x3c, 0xd6, 0xef, 0x79, 0x3c, 0x06, 0x00, 0x00, 0x00,
  0x60, 0x11, 0xd4, 0x3f, 0x15, 0xff, 0x41, 0x3f, 0x28, 0x2b, 0x84, 0x3f,
  0x63, 0x7c, 0x71, 0x3f, 0xba, 0x46, 0x5d, 0x3f, 0xf6, 0xfb, 0xf7, 0x3f,
  0x06, 0x00, 0x00, 0x00, 0xfa, 0x64, 0x3b, 0xbf, 0x6e, 0x6a, 0x9a, 0xbf,
  0xe5, 0x25, 0x97, 0xbf, 0xef, 0x23, 0x51, 0xbf, 0x7e, 0xad, 0xec, 0xbf,
  0x79, 0xb2, 0x3b, 0xbf, 0x4d, 0x00, 0x00, 0x00, 0x73, 0x65, 0x71, 0x75,
  0x65, 0x6e, 0x74, 0x69, 0x61, 0x6c, 0x2f, 0x63, 0x6f, 0x6e, 0x76, 0x32,
  0x64, 0x5f, 0x33, 0x2f, 0x43, 0x6f, 0x6e, 0x76, 0x32, 0x44, 0x3b, 0x53,
  0x74, 0x61, 0x74, 0x65, 0x66, 0x75, 0x6c, 0x50, 0x61, 0x72, 0x74, 0x69,
  0x74, 0x69, 0x6f, 0x6e, 0x65, 0x64, 0x43, 0x61, 0x6c, 0x6c, 0x2f, 0x73,
  0x65, 0x71, 0x75, 0x65, 0x6e, 0x74, 0x69, 0x61, 0x6c, 0x2f, 0x63, 0x6f,
  0x6e, 0x76, 0x32, 0x64, 0x5f, 0x33, 0x2f, 0x43, 0x6f, 0x6e, 0x76, 0x32,
  0x44, 0x00, 0x00, 0x00, 0x04, 0x00, 0x00, 0x00, 0x06, 0x00, 0x00, 0x00,
  0x03, 0x00, 0x00, 0x00, 0x03, 0x00, 0x00, 0x00, 0x06, 0x00, 0x00, 0x00,
  0xc2, 0xfc, 0xff, 0xff, 0x00, 0x00, 0x00, 0x09, 0x04, 0x01, 0x00, 0x00,
  0x07, 0x00, 0x00, 0x00, 0xa8, 0x00, 0x00, 0x00, 0x04, 0x00, 0x00, 0x00,
  0x0c, 0xfc, 0xff, 0xff, 0x80, 0x00, 0x00, 0x00, 0x60, 0x00, 0x00, 0x00,
  0x40, 0x00, 0x00, 0x00, 0x04, 0x00, 0x00, 0x00, 0x06, 0x00, 0x00, 0x00,
  0x00, 0x00, 0x00, 0x00, 0x00, 0x00, 0x00, 0x00, 0x00, 0x00, 0x00, 0x00,
  0x00, 0x00, 0x00, 0x00, 0x00, 0x00, 0x00, 0x00, 0x00, 0x00, 0x00, 0x00,
  0x00, 0x00, 0x00, 0x00, 0x00, 0x00, 0x00, 0x00, 0x00, 0x00, 0x00, 0x00,
  0x00, 0x00, 0x00, 0x00, 0x00, 0x00, 0x00, 0x00, 0x00, 0x00, 0x00, 0x00,
  0x00, 0x00, 0x00, 0x00, 0x06, 0x00, 0x00, 0x00, 0x35, 0xd1, 0xb6, 0x3b,
  0xc8, 0x00, 0xfe, 0x3b, 0x6e, 0xf9, 0xed, 0x3b, 0x37, 0xcf, 0xb5, 0x3c,
  0xe6, 0x1a, 0xd4, 0x3b, 0xb2, 0xbe, 0xd8, 0x3b, 0x06, 0x00, 0x00, 0x00,
  0x93, 0x63, 0x35, 0x3f, 0xc6, 0x04, 0x7c, 0x3f, 0xa0, 0xe7, 0x24, 0x3f,
  0x10, 0x95, 0xfd, 0x3e, 0xb5, 0x15, 0x4c, 0x3f, 0x35, 0x0d, 0x57, 0x3f,
  0x06, 0x00, 0x00, 0x00, 0x6b, 0x3e, 0x06, 0xbf, 0x38, 0x4e, 0xad, 0xbe,
  0x7b, 0x1d, 0x6c, 0xbf, 0x99, 0x63, 0x34, 0xc0, 0xb0, 0x72, 0x52, 0xbf,
  0xd7, 0x13, 0x14, 0xbf, 0x4d, 0x00, 0x00, 0x00, 0x73, 0x65, 0x71, 0x75,
  0x65, 0x6e, 0x74, 0x69, 0x61, 0x6c, 0x2f, 0x63, 0x6f, 0x6e, 0x76, 0x32,
  0x64, 0x5f, 0x32, 0x2f, 0x43, 0x6f, 0x6e, 0x76, 0x32, 0x44, 0x3b, 0x53,
  0x74, 0x61, 0x74, 0x65, 0x66, 0x75, 0x6c, 0x50, 0x61, 0x72, 0x74, 0x69,
  0x74, 0x69, 0x6f, 0x6e, 0x65, 0x64, 0x43, 0x61, 0x6c, 0x6c, 0x2f, 0x73,
  0x65, 0x71, 0x75, 0x65, 0x6e, 0x74, 0x69, 0x61, 0x6c, 0x2f, 0x63, 0x6f,
  0x6e, 0x76, 0x32, 0x64, 0x5f, 0x32, 0x2f, 0x43, 0x6f, 0x6e, 0x76, 0x32,
  0x44, 0x00, 0x00, 0x00, 0x04, 0x00, 0x00, 0x00, 0x06, 0x00, 0x00, 0x00,
  0x03, 0x00, 0x00, 0x00, 0x03, 0x00, 0x00, 0x00, 0x01, 0x00, 0x00, 0x00,
  0xe2, 0xfd, 0xff, 0xff, 0x00, 0x00, 0x00, 0x09, 0x94, 0x00, 0x00, 0x00,
  0x06, 0x00, 0x00, 0x00, 0x40, 0x00, 0x00, 0x00, 0x04, 0x00, 0x00, 0x00,
  0x2c, 0xfd, 0xff, 0xff, 0x2c, 0x00, 0x00, 0x00, 0x20, 0x00, 0x00, 0x00,
  0x14, 0x00, 0x00, 0x00, 0x04, 0x00, 0x00, 0x00, 0x01, 0x00, 0x00, 0x00,
  0x00, 0x00, 0x00, 0x00, 0x00, 0x00, 0x00, 0x00, 0x01, 0x00, 0x00, 0x00,
  0xf0, 0x85, 0x55, 0x3c, 0x01, 0x00, 0x00, 0x00, 0x9a, 0x3c, 0x98, 0x3f,
  0x01, 0x00, 0x00, 0x00, 0xe4, 0xda, 0xd3, 0xbf, 0x47, 0x00, 0x00, 0x00,
  0x73, 0x65, 0x71, 0x75, 0x65, 0x6e, 0x74, 0x69, 0x61, 0x6c, 0x2f, 0x64,
  0x65, 0x6e, 0x73, 0x65, 0x2f, 0x4d, 0x61, 0x74, 0x4d, 0x75, 0x6c, 0x3b,
  0x53, 0x74, 0x61, 0x74, 0x65, 0x66, 0x75, 0x6c, 0x50, 0x61, 0x72, 0x74,
  0x69, 0x74, 0x69, 0x6f, 0x6e, 0x65, 0x64, 0x43, 0x61, 0x6c, 0x6c, 0x2f,
  0x73, 0x65, 0x71, 0x75, 0x65, 0x6e, 0x74, 0x69, 0x61, 0x6c, 0x2f, 0x64,
  0x65, 0x6e, 0x73, 0x65, 0x2f, 0x4d, 0x61, 0x74, 0x4d, 0x75, 0x6c, 0x00,
  0x02, 0x00, 0x00, 0x00, 0x0a, 0x00, 0x00, 0x00, 0xd6, 0x02, 0x00, 0x00,
  0x8a, 0xfe, 0xff, 0xff, 0x00, 0x00, 0x00, 0x02, 0x40, 0x00, 0x00, 0x00,
  0x05, 0x00, 0x00, 0x00, 0x28, 0x00, 0x00, 0x00, 0x04, 0x00, 0x00, 0x00,
  0x24, 0xff, 0xff, 0xff, 0x14, 0x00, 0x00, 0x00, 0x04, 0x00, 0x00, 0x00,
  0x01, 0x00, 0x00, 0x00, 0x00, 0x00, 0x00, 0x00, 0x00, 0x00, 0x00, 0x00,
  0x01, 0x00, 0x00, 0x00, 0xf1, 0x91, 0x22, 0x3a, 0x09, 0x00, 0x00, 0x00,
  0x75, 0x6e, 0x6b, 0x6e, 0x6f, 0x77, 0x6e, 0x5f, 0x34, 0x00, 0x00, 0x00,
  0x01, 0x00, 0x00, 0x00, 0x0a, 0x00, 0x00, 0x00, 0xda, 0xfe, 0xff, 0xff,
  0x00, 0x00, 0x00, 0x02, 0x7c, 0x00, 0x00, 0x00, 0x04, 0x00, 0x00, 0x00,
  0x64, 0x00, 0x00, 0x00, 0x04, 0x00, 0x00, 0x00, 0x74, 0xff, 0xff, 0xff,
  0x3c, 0x00, 0x00, 0x00, 0x04, 0x00, 0x00, 0x00, 0x06, 0x00, 0x00, 0x00,
  0x00, 0x00, 0x00, 0x00, 0x00, 0x00, 0x00, 0x00, 0x00, 0x00, 0x00, 0x00,
  0x00, 0x00, 0x00, 0x00, 0x00, 0x00, 0x00, 0x00, 0x00, 0x00, 0x00, 0x00,
  0x00, 0x00, 0x00, 0x00, 0x00, 0x00, 0x00, 0x00, 0x00, 0x00, 0x00, 0x00,
  0x00, 0x00, 0x00, 0x00, 0x00, 0x00, 0x00, 0x00, 0x00, 0x00, 0x00, 0x00,
  0x06, 0x00, 0x00, 0x00, 0x74, 0x81, 0xdc, 0x38, 0x46, 0x8f, 0xa0, 0x38,
  0x74, 0x29, 0x9d, 0x38, 0x1b, 0x18, 0x7b, 0x38, 0x3d, 0x18, 0xf6, 0x38,
  0xf0, 0xec, 0x00, 0x39, 0x09, 0x00, 0x00, 0x00, 0x75, 0x6e, 0x6b, 0x6e,
  0x6f, 0x77, 0x6e, 0x5f, 0x32, 0x00, 0x00, 0x00, 0x01, 0x00, 0x00, 0x00,
  0x06, 0x00, 0x00, 0x00, 0x66, 0xff, 0xff, 0xff, 0x00, 0x00, 0x00, 0x02,
  0x88, 0x00, 0x00, 0x00, 0x03, 0x00, 0x00, 0x00, 0x70, 0x00, 0x00, 0x00,
  0x10, 0x00, 0x00, 0x00, 0x0c, 0x00, 0x0c, 0x00, 0x00, 0x00, 0x00, 0x00,
  0x04, 0x00, 0x08, 0x00, 0x0c, 0x00, 0x00, 0x00, 0x3c, 0x00, 0x00, 0x00,
  0x04, 0x00, 0x00, 0x00, 0x06, 0x00, 0x00, 0x00, 0x00, 0x00, 0x00, 0x00,
  0x00, 0x00, 0x00, 0x00, 0x00, 0x00, 0x00, 0x00, 0x00, 0x00, 0x00, 0x00,
  0x00, 0x00, 0x00, 0x00, 0x00, 0x00, 0x00, 0x00, 0x00, 0x00, 0x00, 0x00,
  0x00, 0x00, 0x00, 0x00, 0x00, 0x00, 0x00, 0x00, 0x00, 0x00, 0x00, 0x00,
  0x00, 0x00, 0x00, 0x00, 0x00, 0x00, 0x00, 0x00, 0x06, 0x00, 0x00, 0x00,
  0xbe, 0x88, 0xb7, 0x37, 0xc9, 0xff, 0xfe, 0x37, 0x57, 0xe8, 0xee, 0x37,
  0xbd, 0x85, 0xb6, 0x38, 0xd7, 0xef, 0xd4, 0x37, 0x4b, 0x98, 0xd9, 0x37,
  0x09, 0x00, 0x00, 0x00, 0x75, 0x6e, 0x6b, 0x6e, 0x6f, 0x77, 0x6e, 0x5f,
  0x30, 0x00, 0x00, 0x00, 0x01, 0x00, 0x00, 0x00, 0x06, 0x00, 0x00, 0x00,
  0x00, 0x00, 0x0e, 0x00, 0x18, 0x00, 0x08, 0x00, 0x07, 0x00, 0x0c, 0x00,
  0x10, 0x00, 0x14, 0x00, 0x0e, 0x00, 0x00, 0x00, 0x00, 0x00, 0x00, 0x02,
  0x6c, 0x00, 0x00, 0x00, 0x02, 0x00, 0x00, 0x00, 0x10, 0x00, 0x00, 0x00,
  0x08, 0x00, 0x00, 0x00, 0x04, 0x00, 0x04, 0x00, 0x04, 0x00, 0x00, 0x00,
  0x4d, 0x00, 0x00, 0x00, 0x73, 0x65, 0x71, 0x75, 0x65, 0x6e, 0x74, 0x69,
  0x61, 0x6c, 0x2f, 0x66, 0x6c, 0x61, 0x74, 0x74, 0x65, 0x6e, 0x5f, 0x31,
  0x2f, 0x43, 0x6f, 0x6e, 0x73, 0x74, 0x3b, 0x53, 0x74, 0x61, 0x74, 0x65,
  0x66, 0x75, 0x6c, 0x50, 0x61, 0x72, 0x74, 0x69, 0x74, 0x69, 0x6f, 0x6e,
  0x65, 0x64, 0x43, 0x61, 0x6c, 0x6c, 0x2f, 0x73, 0x65, 0x71, 0x75, 0x65,
  0x6e, 0x74, 0x69, 0x61, 0x6c, 0x2f, 0x66, 0x6c, 0x61, 0x74, 0x74, 0x65,
  0x6e, 0x5f, 0x31, 0x2f, 0x43, 0x6f, 0x6e, 0x73, 0x74, 0x00, 0x00, 0x00,
  0x01, 0x00, 0x00, 0x00, 0x02, 0x00, 0x00, 0x00, 0x14, 0x00, 0x1c, 0x00,
  0x08, 0x00, 0x07, 0x00, 0x0c, 0x00, 0x10, 0x00, 0x14, 0x00, 0x00, 0x00,
  0x00, 0x00, 0x18, 0x00, 0x14, 0x00, 0x00, 0x00, 0x00, 0x00, 0x00, 0x09,
  0x80, 0x00, 0x00, 0x00, 0x01, 0x00, 0x00, 0x00, 0x64, 0x00, 0x00, 0x00,
  0x28, 0x00, 0x00, 0x00, 0x04, 0x00, 0x00, 0x00, 0x04, 0x00, 0x00, 0x00,
  0xff, 0xff, 0xff, 0xff, 0x1c, 0x00, 0x00, 0x00, 0x1c, 0x00, 0x00, 0x00,
  0x01, 0x00, 0x00, 0x00, 0x0c, 0x00, 0x14, 0x00, 0x04, 0x00, 0x08, 0x00,
  0x0c, 0x00, 0x10, 0x00, 0x0c, 0x00, 0x00, 0x00, 0x2c, 0x00, 0x00, 0x00,
  0x20, 0x00, 0x00, 0x00, 0x14, 0x00, 0x00, 0x00, 0x04, 0x00, 0x00, 0x00,
  0x01, 0x00, 0x00, 0x00, 0x80, 0xff, 0xff, 0xff, 0xff, 0xff, 0xff, 0xff,
  0x01, 0x00, 0x00, 0x00, 0x81, 0x80, 0x80, 0x3b, 0x01, 0x00, 0x00, 0x00,
  0x00, 0x00, 0x80, 0x3f, 0x01, 0x00, 0x00, 0x00, 0x00, 0x00, 0x00, 0x00,
  0x0c, 0x00, 0x00, 0x00, 0x69, 0x6e, 0x70, 0x75, 0x74, 0x5f, 0x32, 0x5f,
  0x69, 0x6e, 0x74, 0x38, 0x00, 0x00, 0x00, 0x00, 0x04, 0x00, 0x00, 0x00,
  0x01, 0x00, 0x00, 0x00, 0x1c, 0x00, 0x00, 0x00, 0x1c, 0x00, 0x00, 0x00,
  0x01, 0x00, 0x00, 0x00, 0x07, 0x00, 0x00, 0x00, 0x80, 0x00, 0x00, 0x00,
  0x64, 0x00, 0x00, 0x00, 0x50, 0x00, 0x00, 0x00, 0x38, 0x00, 0x00, 0x00,
  0x28, 0x00, 0x00, 0x00, 0x1c, 0x00, 0x00, 0x00, 0x04, 0x00, 0x00, 0x00,
  0xbe, 0xff, 0xff, 0xff, 0x00, 0x00, 0x00, 0x06, 0x02, 0x00, 0x00, 0x00,
  0x00, 0x00, 0x06, 0x00, 0x08, 0x00, 0x07, 0x00, 0x06, 0x00, 0x00, 0x00,
  0x00, 0x00, 0x00, 0x72, 0xc2, 0xff, 0xff, 0xff, 0x00, 0x00, 0x00, 0x19,
  0x02, 0x00, 0x00, 0x00, 0xe6, 0xff, 0xff, 0xff, 0x00, 0x00, 0x00, 0x09,
  0x04, 0x00, 0x00, 0x00, 0x00, 0x00, 0x06, 0x00, 0x06, 0x00, 0x05, 0x00,
  0x06, 0x00, 0x00, 0x00, 0x00, 0x16, 0x0a, 0x00, 0x0e, 0x00, 0x07, 0x00,
  0x00, 0x00, 0x08, 0x00, 0x0a, 0x00, 0x00, 0x00, 0x00, 0x00, 0x00, 0x11,
  0x02, 0x00, 0x00, 0x00, 0x00, 0x00, 0x0a, 0x00, 0x0c, 0x00, 0x07, 0x00,
  0x00, 0x00, 0x08, 0x00, 0x0a, 0x00, 0x00, 0x00, 0x00, 0x00, 0x00, 0x03,
  0x03, 0x00, 0x00, 0x00
};
unsigned int __mnist_model_tflite_len = 12160;
